/*
 * SPDX-FileCopyrightText: 2026 Espressif Systems (Shanghai) CO LTD
 *
 * SPDX-License-Identifier: Apache-2.0
 */
#include "model.h"

const unsigned char gesture_inference_micro_simple_norm_model_tflite[17568] = {
    0x20, 0x00, 0x00, 0x00, 0x54, 0x46, 0x4c, 0x33, 0x00, 0x00, 0x00, 0x00,
    0x14, 0x00, 0x20, 0x00, 0x1c, 0x00, 0x18, 0x00, 0x14, 0x00, 0x10, 0x00,
    0x0c, 0x00, 0x00, 0x00, 0x08, 0x00, 0x04, 0x00, 0x14, 0x00, 0x00, 0x00,
    0x1c, 0x00, 0x00, 0x00, 0x1c, 0x00, 0x00, 0x00, 0x9c, 0x00, 0x00, 0x00,
    0x4c, 0x2c, 0x00, 0x00, 0x5c, 0x2c, 0x00, 0x00, 0xc4, 0x43, 0x00, 0x00,
    0x03, 0x00, 0x00, 0x00, 0x00, 0x00, 0x00, 0x00, 0x03, 0x00, 0x00, 0x00,
    0x5c, 0x00, 0x00, 0x00, 0x2c, 0x00, 0x00, 0x00, 0x04, 0x00, 0x00, 0x00,
    0xb8, 0xff, 0xff, 0xff, 0x20, 0x00, 0x00, 0x00, 0x04, 0x00, 0x00, 0x00,
    0x13, 0x00, 0x00, 0x00, 0x43, 0x4f, 0x4e, 0x56, 0x45, 0x52, 0x53, 0x49,
    0x4f, 0x4e, 0x5f, 0x4d, 0x45, 0x54, 0x41, 0x44, 0x41, 0x54, 0x41, 0x00,
    0xdc, 0xff, 0xff, 0xff, 0x1f, 0x00, 0x00, 0x00, 0x04, 0x00, 0x00, 0x00,
    0x13, 0x00, 0x00, 0x00, 0x6d, 0x69, 0x6e, 0x5f, 0x72, 0x75, 0x6e, 0x74,
    0x69, 0x6d, 0x65, 0x5f, 0x76, 0x65, 0x72, 0x73, 0x69, 0x6f, 0x6e, 0x00,
    0x08, 0x00, 0x0c, 0x00, 0x08, 0x00, 0x04, 0x00, 0x08, 0x00, 0x00, 0x00,
    0x1e, 0x00, 0x00, 0x00, 0x04, 0x00, 0x00, 0x00, 0x13, 0x00, 0x00, 0x00,
    0x6d, 0x69, 0x6e, 0x5f, 0x72, 0x75, 0x6e, 0x74, 0x69, 0x6d, 0x65, 0x5f,
    0x76, 0x65, 0x72, 0x73, 0x69, 0x6f, 0x6e, 0x00, 0x21, 0x00, 0x00, 0x00,
    0xac, 0x2b, 0x00, 0x00, 0xa4, 0x2b, 0x00, 0x00, 0x7c, 0x2b, 0x00, 0x00,
    0x5c, 0x2b, 0x00, 0x00, 0x40, 0x2b, 0x00, 0x00, 0x18, 0x2b, 0x00, 0x00,
    0xf8, 0x2a, 0x00, 0x00, 0xe0, 0x2a, 0x00, 0x00, 0xbc, 0x2a, 0x00, 0x00,
    0x0c, 0x2a, 0x00, 0x00, 0x7c, 0x29, 0x00, 0x00, 0x6c, 0x0d, 0x00, 0x00,
    0xdc, 0x0c, 0x00, 0x00, 0xcc, 0x02, 0x00, 0x00, 0x7c, 0x02, 0x00, 0x00,
    0x1c, 0x01, 0x00, 0x00, 0x14, 0x01, 0x00, 0x00, 0x0c, 0x01, 0x00, 0x00,
    0x04, 0x01, 0x00, 0x00, 0xfc, 0x00, 0x00, 0x00, 0xf4, 0x00, 0x00, 0x00,
    0xec, 0x00, 0x00, 0x00, 0xe4, 0x00, 0x00, 0x00, 0xdc, 0x00, 0x00, 0x00,
    0xd4, 0x00, 0x00, 0x00, 0xcc, 0x00, 0x00, 0x00, 0xc4, 0x00, 0x00, 0x00,
    0xbc, 0x00, 0x00, 0x00, 0xb4, 0x00, 0x00, 0x00, 0xac, 0x00, 0x00, 0x00,
    0x8c, 0x00, 0x00, 0x00, 0x6c, 0x00, 0x00, 0x00, 0x04, 0x00, 0x00, 0x00,
    0x2e, 0xd4, 0xff, 0xff, 0x04, 0x00, 0x00, 0x00, 0x58, 0x00, 0x00, 0x00,
    0x0c, 0x00, 0x00, 0x00, 0x08, 0x00, 0x0e, 0x00, 0x08, 0x00, 0x04, 0x00,
    0x08, 0x00, 0x00, 0x00, 0x10, 0x00, 0x00, 0x00, 0x28, 0x00, 0x00, 0x00,
    0x00, 0x00, 0x06, 0x00, 0x08, 0x00, 0x04, 0x00, 0x06, 0x00, 0x00, 0x00,
    0x04, 0x00, 0x00, 0x00, 0x01, 0x00, 0x00, 0x00, 0xeb, 0x03, 0x00, 0x00,
    0x00, 0x00, 0x0a, 0x00, 0x10, 0x00, 0x0c, 0x00, 0x08, 0x00, 0x04, 0x00,
    0x0a, 0x00, 0x00, 0x00, 0x03, 0x00, 0x00, 0x00, 0x02, 0x00, 0x00, 0x00,
    0x04, 0x00, 0x00, 0x00, 0x06, 0x00, 0x00, 0x00, 0x32, 0x2e, 0x31, 0x36,
    0x2e, 0x32, 0x00, 0x00, 0x92, 0xd4, 0xff, 0xff, 0x04, 0x00, 0x00, 0x00,
    0x10, 0x00, 0x00, 0x00, 0x00, 0x00, 0x00, 0x00, 0x00, 0x00, 0x00, 0x00,
    0x00, 0x00, 0x00, 0x00, 0x00, 0x00, 0x00, 0x00, 0xae, 0xd4, 0xff, 0xff,
    0x04, 0x00, 0x00, 0x00, 0x10, 0x00, 0x00, 0x00, 0x31, 0x2e, 0x31, 0x34,
    0x2e, 0x30, 0x00, 0x00, 0x00, 0x00, 0x00, 0x00, 0x00, 0x00, 0x00, 0x00,
    0x94, 0xbe, 0xff, 0xff, 0x98, 0xbe, 0xff, 0xff, 0x9c, 0xbe, 0xff, 0xff,
    0xa0, 0xbe, 0xff, 0xff, 0xa4, 0xbe, 0xff, 0xff, 0xa8, 0xbe, 0xff, 0xff,
    0xac, 0xbe, 0xff, 0xff, 0xb0, 0xbe, 0xff, 0xff, 0xb4, 0xbe, 0xff, 0xff,
    0xb8, 0xbe, 0xff, 0xff, 0xbc, 0xbe, 0xff, 0xff, 0xc0, 0xbe, 0xff, 0xff,
    0xc4, 0xbe, 0xff, 0xff, 0xc8, 0xbe, 0xff, 0xff, 0x02, 0xd5, 0xff, 0xff,
    0x04, 0x00, 0x00, 0x00, 0x50, 0x01, 0x00, 0x00, 0x58, 0x81, 0x94, 0xae,
    0xd1, 0xae, 0x4f, 0xf6, 0x18, 0x4d, 0x09, 0xf8, 0xfe, 0xe9, 0xd8, 0x33,
    0x19, 0xea, 0x2a, 0x9c, 0xdd, 0xf9, 0xd5, 0x17, 0x01, 0x3e, 0x7f, 0x1a,
    0x50, 0xec, 0xf9, 0x1f, 0xf5, 0x1c, 0x4e, 0x0a, 0xf7, 0xc5, 0x7c, 0x12,
    0xc8, 0x52, 0xf6, 0x18, 0xb3, 0x22, 0xf2, 0x81, 0xec, 0x15, 0x26, 0x0b,
    0xb7, 0x25, 0x5a, 0x0d, 0x0c, 0xf3, 0x33, 0x27, 0x49, 0x68, 0xa9, 0x6b,
    0x9a, 0xb3, 0x04, 0xe9, 0xe4, 0xa8, 0xd5, 0xe0, 0x57, 0x43, 0xb5, 0x22,
    0x96, 0x39, 0x41, 0x02, 0x7f, 0x10, 0x30, 0x20, 0xd5, 0x81, 0x0d, 0xc9,
    0x0f, 0xc2, 0x49, 0x21, 0x08, 0xe1, 0x38, 0xe6, 0xdc, 0xaf, 0xe8, 0x2c,
    0xe9, 0xb9, 0xef, 0x51, 0xa1, 0x1b, 0x5a, 0x91, 0x9b, 0x63, 0x8e, 0x55,
    0x93, 0x0b, 0xd2, 0x8e, 0x7f, 0xf9, 0x53, 0x9d, 0x5e, 0xe6, 0x5b, 0xdc,
    0xc4, 0xc5, 0x3f, 0x64, 0x4c, 0x17, 0x2b, 0x63, 0xee, 0xad, 0xde, 0x01,
    0x50, 0xa1, 0x36, 0xb4, 0xcd, 0xc3, 0x38, 0x17, 0x27, 0xf3, 0x81, 0xe0,
    0xae, 0x1b, 0x7f, 0x56, 0x53, 0x8c, 0xd2, 0x98, 0x4b, 0xf7, 0xa4, 0xc8,
    0xac, 0x19, 0x46, 0x01, 0x0a, 0xf7, 0x7d, 0x64, 0xf2, 0x65, 0x85, 0xe8,
    0x56, 0x0d, 0xc2, 0x02, 0xf4, 0xb6, 0x43, 0xc4, 0xc7, 0x1a, 0x1c, 0x3b,
    0xb0, 0x17, 0x34, 0x65, 0x7f, 0x44, 0x81, 0x21, 0xff, 0xca, 0x13, 0x4d,
    0x9b, 0x27, 0xf3, 0xbf, 0xf4, 0x09, 0xbb, 0xdb, 0xcb, 0x0b, 0x29, 0x3f,
    0x05, 0xa4, 0x81, 0xe5, 0xd2, 0x93, 0x19, 0xfd, 0x89, 0x99, 0x5d, 0xa2,
    0xd6, 0xf5, 0xe7, 0x30, 0x25, 0xdc, 0xe1, 0x45, 0x91, 0x45, 0x75, 0x1c,
    0x0b, 0xaa, 0xe1, 0xa8, 0xfc, 0x1c, 0x54, 0xac, 0xde, 0x0a, 0xaa, 0x3f,
    0xe8, 0xcd, 0x17, 0x34, 0x34, 0x36, 0x7f, 0x14, 0x3b, 0x35, 0x4d, 0x02,
    0x7f, 0xea, 0x2c, 0x60, 0x90, 0x1f, 0xeb, 0xc2, 0xa3, 0xf2, 0xaf, 0xd7,
    0x67, 0xc4, 0x0d, 0x4e, 0xdb, 0x06, 0x81, 0xdd, 0x58, 0x21, 0x8b, 0xfe,
    0xbb, 0x94, 0xda, 0xf6, 0xa3, 0xd7, 0xbe, 0xf8, 0xc4, 0xcc, 0xf1, 0x35,
    0x0c, 0xd2, 0xf8, 0xd0, 0xed, 0xed, 0x20, 0x41, 0xca, 0x61, 0xf4, 0x5c,
    0xd5, 0xff, 0xa8, 0x28, 0xa7, 0x57, 0x81, 0x1d, 0x23, 0xa0, 0xf9, 0x3b,
    0x7f, 0xda, 0x25, 0xc4, 0xec, 0x21, 0xb5, 0x56, 0x59, 0x70, 0x98, 0xd8,
    0xa2, 0x1a, 0x66, 0x56, 0xf5, 0xd9, 0x2b, 0x17, 0x5e, 0xd6, 0xff, 0xff,
    0x04, 0x00, 0x00, 0x00, 0x40, 0x00, 0x00, 0x00, 0x45, 0x01, 0x00, 0x00,
    0xbc, 0x02, 0x00, 0x00, 0x9e, 0x02, 0x00, 0x00, 0xba, 0x00, 0x00, 0x00,
    0x94, 0xfe, 0xff, 0xff, 0x8d, 0x00, 0x00, 0x00, 0x36, 0x01, 0x00, 0x00,
    0xc2, 0x00, 0x00, 0x00, 0x25, 0x00, 0x00, 0x00, 0xd6, 0x02, 0x00, 0x00,
    0x13, 0x00, 0x00, 0x00, 0xbf, 0xff, 0xff, 0xff, 0x52, 0xfe, 0xff, 0xff,
    0x77, 0x01, 0x00, 0x00, 0x62, 0x01, 0x00, 0x00, 0x80, 0x00, 0x00, 0x00,
    0xaa, 0xd6, 0xff, 0xff, 0x04, 0x00, 0x00, 0x00, 0x00, 0x0a, 0x00, 0x00,
    0x4b, 0x53, 0xf7, 0xd6, 0x06, 0x92, 0xda, 0x9e, 0x3e, 0x0a, 0x15, 0x0e,
    0x42, 0x18, 0x14, 0xeb, 0xea, 0x55, 0x47, 0xe6, 0x00, 0xe8, 0xd4, 0xe7,
    0xf8, 0x3a, 0xdc, 0x02, 0xe4, 0x1e, 0x09, 0x26, 0x1a, 0x4f, 0xf7, 0xb2,
    0xe6, 0xa4, 0xac, 0xd5, 0xcd, 0xc1, 0x16, 0x6d, 0x58, 0xe9, 0xef, 0xea,
    0x03, 0x4a, 0x17, 0x1c, 0xef, 0x11, 0xbb, 0xea, 0xe0, 0x24, 0xe8, 0x03,
    0x3c, 0x2d, 0x3b, 0xb9, 0x7f, 0x48, 0xee, 0x22, 0x12, 0x9b, 0xdf, 0xd2,
    0x0f, 0xaf, 0x2b, 0x04, 0x00, 0x1b, 0xe6, 0xfb, 0xe9, 0x74, 0x1f, 0xd5,
    0x5e, 0xce, 0x30, 0xd6, 0xf9, 0x08, 0xc9, 0x47, 0x48, 0xc3, 0xf8, 0xdf,
    0xd9, 0xe9, 0x49, 0xf6, 0x1e, 0xbe, 0xf2, 0xfe, 0x16, 0x04, 0xf0, 0xe5,
    0xd4, 0x1e, 0xbb, 0xd3, 0x06, 0xfd, 0x06, 0x25, 0x37, 0xcd, 0xd9, 0xe4,
    0x0a, 0x7f, 0xab, 0xcd, 0xe1, 0x13, 0x0c, 0xee, 0xc0, 0x48, 0xee, 0xc2,
    0xfb, 0xca, 0xec, 0x32, 0x02, 0x00, 0xe6, 0x14, 0xdc, 0x4b, 0x48, 0x27,
    0x0c, 0x68, 0xcf, 0x0c, 0x5d, 0x02, 0x16, 0x04, 0x21, 0x4e, 0xc7, 0x0d,
    0xf5, 0xf7, 0xed, 0xc9, 0x2b, 0xef, 0x19, 0x37, 0xd3, 0x1e, 0xe4, 0x17,
    0xe4, 0xce, 0x0c, 0x8d, 0xdf, 0xe4, 0xe7, 0xf5, 0xcb, 0xf3, 0xf7, 0xdc,
    0xae, 0x03, 0xf8, 0x6a, 0x18, 0xe3, 0xe6, 0x83, 0x10, 0x61, 0x3c, 0xe9,
    0xf6, 0xd3, 0xf3, 0xd7, 0x08, 0x43, 0x26, 0xfb, 0xc3, 0xe7, 0xfc, 0xe7,
    0x51, 0x17, 0xc2, 0x04, 0x1e, 0x4b, 0x33, 0x09, 0xba, 0x37, 0xe9, 0xd9,
    0xfd, 0x09, 0x5c, 0xde, 0x13, 0xff, 0xe0, 0x52, 0x1d, 0xd3, 0xdc, 0xf3,
    0xc4, 0x7f, 0x2b, 0x64, 0x57, 0xce, 0xcd, 0xd8, 0x10, 0xf5, 0xa9, 0x0c,
    0x0a, 0x81, 0xcc, 0x27, 0xea, 0x0a, 0x2c, 0xf3, 0x1f, 0x20, 0xdc, 0xe6,
    0x4c, 0x01, 0x0b, 0x19, 0x01, 0xa4, 0xcb, 0x24, 0x9f, 0x60, 0x37, 0x04,
    0xf9, 0x21, 0x62, 0xb8, 0xee, 0x2b, 0x20, 0x0e, 0x30, 0x05, 0x23, 0x1e,
    0x9d, 0xef, 0xd5, 0x13, 0x1f, 0x42, 0xc4, 0xc8, 0xec, 0xee, 0x17, 0xfe,
    0xac, 0x3d, 0x06, 0xba, 0x20, 0xde, 0xdd, 0xdb, 0xdd, 0x0f, 0x5d, 0x03,
    0x60, 0xa6, 0x37, 0x35, 0xb3, 0xa7, 0xde, 0x27, 0x00, 0x39, 0xc1, 0x34,
    0x13, 0x3e, 0xe9, 0xf5, 0x38, 0x1a, 0xe1, 0x0c, 0x03, 0xa0, 0x22, 0xf4,
    0xcc, 0x24, 0x3e, 0xb0, 0xd6, 0x3c, 0x08, 0x59, 0x75, 0x17, 0x05, 0x07,
    0x2f, 0x3c, 0xa6, 0xdd, 0x41, 0x28, 0xf4, 0x1c, 0x55, 0x5e, 0x46, 0x4e,
    0x10, 0xc6, 0x5e, 0xda, 0x10, 0xe4, 0x44, 0xdc, 0x4f, 0xaa, 0x0f, 0x2a,
    0x52, 0xc5, 0x02, 0x13, 0xeb, 0xad, 0xff, 0x37, 0x49, 0xc4, 0x01, 0xf2,
    0x50, 0x9a, 0x5b, 0xfc, 0xed, 0x01, 0xcd, 0x32, 0x33, 0x81, 0xf3, 0x90,
    0xe6, 0xc2, 0x56, 0xb9, 0xe5, 0xa3, 0x1c, 0xcb, 0x03, 0x12, 0xbb, 0x5d,
    0xf5, 0xd2, 0xf1, 0xa9, 0xc4, 0x2e, 0xf7, 0xd8, 0x46, 0x3e, 0x12, 0x1b,
    0x0d, 0xb6, 0x32, 0x79, 0xdb, 0x25, 0xdb, 0xc0, 0x57, 0x3b, 0xde, 0x2c,
    0xb4, 0xf9, 0xef, 0xd0, 0xb2, 0x7f, 0xa3, 0xf8, 0xd4, 0x34, 0x0c, 0x9c,
    0x37, 0x70, 0xe2, 0xee, 0x76, 0x2f, 0x1d, 0xe6, 0x93, 0xbd, 0x32, 0x23,
    0xe5, 0x31, 0xa7, 0xaa, 0xc8, 0x5b, 0xe6, 0x55, 0x7c, 0x4c, 0xa7, 0x11,
    0x35, 0x16, 0xe9, 0x05, 0x51, 0xcb, 0x94, 0xaf, 0xf4, 0x09, 0x0d, 0xe7,
    0x3a, 0x36, 0x0c, 0x06, 0xb9, 0xcb, 0xab, 0xd7, 0xf2, 0x1e, 0xcf, 0xbe,
    0x53, 0xcc, 0x3f, 0x25, 0x06, 0xb3, 0xb0, 0xd8, 0xed, 0x21, 0xe2, 0xd2,
    0xa9, 0x59, 0xb6, 0x2e, 0x12, 0x46, 0x38, 0xf8, 0xc4, 0xf5, 0xfe, 0xe0,
    0x3a, 0xf8, 0xe8, 0xeb, 0xdf, 0x20, 0x13, 0x15, 0x78, 0xc8, 0x29, 0x0b,
    0xfd, 0x32, 0xf2, 0xb8, 0x29, 0x4c, 0xd4, 0xfb, 0xe5, 0x36, 0x28, 0x21,
    0x7f, 0xce, 0x1c, 0x0a, 0x2d, 0xb9, 0xce, 0x13, 0x61, 0x29, 0xf7, 0xbf,
    0x04, 0x3a, 0x35, 0xe1, 0xda, 0x30, 0xb0, 0x12, 0x0a, 0xf7, 0x29, 0x9e,
    0xf6, 0xfb, 0x08, 0x18, 0xdf, 0x08, 0xc9, 0xf1, 0x03, 0xb5, 0x0b, 0xfe,
    0xeb, 0x5d, 0x2f, 0x39, 0x2b, 0xbe, 0xe2, 0x38, 0x0a, 0xcc, 0x03, 0xf5,
    0xa2, 0xfe, 0x98, 0x7f, 0x9e, 0xbf, 0xe3, 0xd0, 0x2d, 0x03, 0x44, 0xda,
    0x8f, 0x8b, 0xbe, 0xe1, 0xb3, 0x01, 0x4c, 0xf9, 0x9b, 0x63, 0xbc, 0x6e,
    0x31, 0xcf, 0xab, 0xde, 0x98, 0xf0, 0xd3, 0x04, 0x2e, 0xbc, 0x25, 0xb6,
    0x4f, 0x3c, 0x08, 0xef, 0xd9, 0x61, 0x32, 0x6c, 0x6d, 0xf8, 0x8e, 0xfb,
    0xe5, 0x9d, 0x32, 0x1d, 0xcb, 0x51, 0x2f, 0x2c, 0x43, 0x13, 0x0e, 0x63,
    0xe8, 0x1b, 0xfa, 0xa8, 0xc3, 0xba, 0xaf, 0x51, 0xb1, 0x47, 0x18, 0xe5,
    0xd5, 0xe4, 0x1a, 0xbb, 0xe5, 0x7f, 0xdc, 0x0c, 0x59, 0x23, 0xce, 0xd7,
    0x12, 0xf8, 0xe1, 0xc7, 0x1f, 0xd6, 0xdf, 0x08, 0xd0, 0xbe, 0xb8, 0x4f,
    0x4e, 0xb1, 0xc0, 0x50, 0xae, 0x36, 0x4a, 0xd2, 0xe3, 0x15, 0xf2, 0x05,
    0xf7, 0xf7, 0x16, 0x25, 0x3e, 0x05, 0xf7, 0x0c, 0xea, 0xfc, 0x3a, 0xc0,
    0x50, 0x26, 0x66, 0xae, 0x1f, 0xe0, 0xcf, 0x39, 0x24, 0x34, 0xf0, 0x3e,
    0xb7, 0x6d, 0x39, 0xf2, 0x47, 0xe9, 0xf9, 0x16, 0xee, 0xd1, 0x16, 0xd9,
    0xc1, 0x0e, 0xe5, 0xe7, 0xb3, 0x35, 0x0f, 0x3d, 0x28, 0xa5, 0x45, 0x22,
    0x43, 0x29, 0xe1, 0xd4, 0xd2, 0x81, 0x24, 0x13, 0x2a, 0xc2, 0xf0, 0x50,
    0x21, 0xa7, 0xe1, 0x24, 0xd1, 0x39, 0xeb, 0x4f, 0xe5, 0x14, 0x5a, 0x15,
    0xe5, 0x1e, 0xb6, 0x31, 0xac, 0x1d, 0x5e, 0x8c, 0x58, 0xd1, 0xf9, 0xea,
    0x24, 0xa4, 0xf1, 0xac, 0xe8, 0x08, 0x66, 0x40, 0xa3, 0xa6, 0xe9, 0x15,
    0xd6, 0xd5, 0x15, 0xb3, 0x25, 0xe7, 0xd7, 0x35, 0x42, 0xd2, 0x0c, 0x3f,
    0xd6, 0x2c, 0xde, 0xcf, 0x2e, 0x2b, 0xd8, 0xee, 0xeb, 0xfe, 0x4b, 0xb9,
    0xe1, 0xf9, 0xee, 0xc8, 0x0b, 0x53, 0x32, 0x6e, 0x2b, 0xfe, 0x10, 0xab,
    0xb6, 0xe6, 0x05, 0x19, 0xd1, 0xa8, 0x00, 0xa6, 0x60, 0x7f, 0x91, 0x1e,
    0xfc, 0x17, 0xfe, 0xe4, 0xe7, 0xd0, 0xbc, 0x01, 0xd0, 0xab, 0xed, 0x97,
    0x32, 0x07, 0x99, 0x47, 0xca, 0x64, 0xd0, 0x32, 0x29, 0x46, 0xfb, 0xde,
    0x25, 0x0e, 0xd3, 0x30, 0x18, 0x4f, 0x4e, 0x3d, 0xc2, 0xb5, 0x1a, 0x22,
    0x16, 0xfd, 0xe3, 0xea, 0x4b, 0xab, 0xc1, 0xc3, 0x70, 0x76, 0xb2, 0x05,
    0x77, 0xf6, 0x0f, 0x2e, 0xfd, 0x6a, 0x7f, 0xc0, 0xe5, 0x2e, 0xf0, 0x09,
    0x9c, 0xce, 0x49, 0x22, 0xc1, 0x49, 0xd0, 0xc6, 0xd2, 0xc8, 0x78, 0x44,
    0x6e, 0xb0, 0x20, 0xba, 0xc5, 0xb7, 0xa8, 0x52, 0x30, 0x0c, 0xa2, 0xc0,
    0x46, 0xbc, 0xd2, 0x3d, 0x09, 0x27, 0x5d, 0xbe, 0x30, 0x05, 0x23, 0x14,
    0xe6, 0x1b, 0x41, 0x4f, 0x00, 0x17, 0xc8, 0xd1, 0x20, 0x04, 0x8c, 0xf8,
    0x9c, 0xe8, 0x4c, 0x3c, 0xb5, 0x47, 0x93, 0xa9, 0xb8, 0x10, 0x5f, 0xff,
    0xe0, 0x85, 0x05, 0xe3, 0x83, 0x08, 0xf5, 0x35, 0xdd, 0xdb, 0x32, 0x4f,
    0x19, 0x2a, 0x1d, 0x0d, 0x1f, 0x2c, 0x04, 0x02, 0xff, 0x35, 0x0d, 0x1f,
    0xb5, 0x09, 0xcf, 0xae, 0xf4, 0x12, 0x15, 0x46, 0xf4, 0x0b, 0xbe, 0x4b,
    0xac, 0x30, 0xaa, 0xf2, 0xe2, 0x29, 0x17, 0x1c, 0xf4, 0x7f, 0xb5, 0xda,
    0x1e, 0x24, 0xcc, 0x2a, 0xe9, 0xe2, 0x0a, 0x37, 0x42, 0xf5, 0x17, 0x89,
    0x8a, 0x71, 0x14, 0xe6, 0x26, 0xce, 0x2f, 0x5a, 0x4f, 0x31, 0x32, 0xdb,
    0xc0, 0xd9, 0x9c, 0x24, 0x1f, 0x3e, 0xf9, 0x60, 0xed, 0x3f, 0xb9, 0xf1,
    0x00, 0xbc, 0xcf, 0xfc, 0x10, 0x0e, 0xf8, 0xef, 0x2a, 0x74, 0xbf, 0xad,
    0x50, 0x81, 0xd8, 0x2f, 0x26, 0xd2, 0xcf, 0xbe, 0x35, 0x21, 0xc1, 0x2e,
    0xbc, 0xb6, 0x44, 0xca, 0xbb, 0x64, 0xce, 0x5a, 0xeb, 0x0c, 0x07, 0x18,
    0xa4, 0x5f, 0x28, 0x14, 0x56, 0xc7, 0x9c, 0x2e, 0xac, 0xbe, 0x8f, 0xbd,
    0xf2, 0x60, 0xcd, 0x92, 0x27, 0xd5, 0x1e, 0x52, 0x6e, 0x0f, 0xd4, 0xc9,
    0xc8, 0x3a, 0xe6, 0xe1, 0x5c, 0xf7, 0x48, 0x37, 0x64, 0x26, 0xd8, 0x16,
    0x46, 0xdc, 0xd2, 0xd5, 0x44, 0xae, 0xd5, 0xdf, 0x3c, 0x01, 0xae, 0x0b,
    0x18, 0xe4, 0xfd, 0x59, 0x00, 0xab, 0x02, 0xb3, 0x0e, 0x3c, 0xbf, 0xe2,
    0xdf, 0x4d, 0x06, 0x25, 0x1a, 0x6e, 0xa8, 0x2a, 0xf4, 0xb6, 0x0b, 0xcd,
    0xf1, 0x5b, 0x4a, 0x17, 0xe5, 0x31, 0x2c, 0x10, 0x23, 0x29, 0x34, 0x91,
    0xd5, 0x2d, 0xb9, 0x03, 0x68, 0x15, 0x53, 0xc9, 0x4b, 0x27, 0x1d, 0x12,
    0x01, 0x4e, 0x97, 0x16, 0xb5, 0x05, 0x11, 0xaa, 0x7f, 0xdc, 0xaf, 0x09,
    0x4b, 0xce, 0x0d, 0xf0, 0x0c, 0xdf, 0x0f, 0x1e, 0x37, 0x16, 0x30, 0xc6,
    0xf0, 0x40, 0x46, 0x01, 0x1c, 0xc4, 0xd8, 0xf9, 0x45, 0xe5, 0xb7, 0xff,
    0xb3, 0xe4, 0xc6, 0x03, 0x19, 0x0f, 0xc4, 0xe2, 0x34, 0x43, 0xc2, 0x0c,
    0xd1, 0xf3, 0xac, 0xf1, 0xa9, 0x39, 0xff, 0x62, 0x14, 0x79, 0xa4, 0xd4,
    0xd9, 0x5e, 0xaa, 0x0c, 0x27, 0x5c, 0xee, 0x14, 0xc7, 0x01, 0xdd, 0x6d,
    0x3f, 0x18, 0x32, 0xd1, 0x1f, 0xf8, 0x3c, 0xe0, 0xcd, 0xed, 0x09, 0x41,
    0x3b, 0x4f, 0xf9, 0xbf, 0x05, 0x29, 0xbd, 0x19, 0xba, 0xce, 0xf5, 0x67,
    0x54, 0xf2, 0x81, 0x0a, 0xe7, 0x5e, 0xc8, 0xec, 0x5d, 0x47, 0xb1, 0x4c,
    0xc8, 0x00, 0x0f, 0xcf, 0x01, 0xfd, 0xc2, 0xcc, 0x13, 0xdc, 0xfd, 0xc9,
    0xc2, 0xe3, 0x08, 0x0d, 0xca, 0xde, 0x03, 0x33, 0x07, 0x1d, 0x1d, 0x47,
    0x01, 0x51, 0x29, 0x83, 0x3d, 0x22, 0xdf, 0x35, 0xdd, 0xb6, 0x48, 0x0f,
    0x3e, 0xdb, 0x1d, 0x30, 0xcc, 0x30, 0xc0, 0xcb, 0x3a, 0xd0, 0x00, 0xbf,
    0x24, 0xc8, 0xe4, 0xfd, 0xd4, 0x7f, 0x10, 0x2b, 0x04, 0x52, 0xcc, 0x2e,
    0xeb, 0xbd, 0x00, 0x5a, 0x66, 0xdc, 0xdc, 0xde, 0xbd, 0x2a, 0xaa, 0x1b,
    0x1b, 0x05, 0xbd, 0x91, 0xb1, 0x9f, 0x16, 0x25, 0xfd, 0x2c, 0xef, 0x11,
    0x11, 0x38, 0x26, 0x1f, 0x43, 0xbb, 0xe6, 0x50, 0xd7, 0x30, 0xe2, 0xf5,
    0x1d, 0x04, 0xfb, 0x23, 0xce, 0xce, 0x34, 0xdc, 0x27, 0xfe, 0xea, 0xea,
    0x21, 0xd7, 0x36, 0x3b, 0xf3, 0x33, 0x14, 0xc3, 0xc3, 0xdb, 0x1f, 0x13,
    0xfd, 0xbe, 0x13, 0xd0, 0x31, 0xd7, 0xe1, 0x3a, 0xe6, 0xcf, 0xe9, 0x39,
    0xf0, 0x1a, 0x42, 0x38, 0x08, 0x1a, 0xfe, 0x2e, 0xbb, 0x05, 0x0a, 0xb6,
    0x64, 0x1b, 0x01, 0xc5, 0x33, 0xf0, 0x64, 0xdf, 0xcb, 0xe5, 0xb7, 0xf0,
    0x24, 0xb4, 0xce, 0x09, 0x50, 0x7f, 0xb9, 0x56, 0x11, 0x06, 0x41, 0xc0,
    0xbf, 0x48, 0x26, 0xa7, 0xf4, 0xff, 0xbc, 0x08, 0x20, 0x00, 0xff, 0x0f,
    0x31, 0x02, 0xcc, 0x0c, 0xb3, 0x49, 0xfa, 0x4f, 0x39, 0xca, 0x2f, 0xc0,
    0xf7, 0x21, 0x03, 0xf4, 0xef, 0xe6, 0x43, 0x0c, 0x1d, 0xed, 0xd0, 0xc3,
    0x09, 0x0e, 0xd2, 0x4f, 0xe0, 0xcb, 0xe1, 0x33, 0x34, 0x37, 0xc9, 0xc7,
    0x11, 0xec, 0xe8, 0x27, 0xd3, 0x09, 0xff, 0xc9, 0xda, 0x2f, 0x36, 0x49,
    0xf1, 0xcc, 0x47, 0x1a, 0xd1, 0x7f, 0x9d, 0x3a, 0x52, 0x16, 0x13, 0xcf,
    0x9e, 0x41, 0x2b, 0x3a, 0xcd, 0xc7, 0x03, 0xd5, 0x0a, 0x23, 0x2d, 0x10,
    0xbb, 0xbb, 0xaa, 0x3e, 0x59, 0x10, 0xd0, 0x7f, 0xb3, 0xe9, 0x1f, 0xc0,
    0xfa, 0xa1, 0xd9, 0x34, 0xe8, 0xcd, 0xba, 0xe2, 0x4f, 0x17, 0xbd, 0x49,
    0xec, 0x0c, 0xe6, 0xbf, 0xf1, 0x0e, 0x33, 0xbc, 0x07, 0x0e, 0xf0, 0xcc,
    0x22, 0x4b, 0xf3, 0x53, 0x36, 0x5d, 0x29, 0xe6, 0x53, 0xd9, 0x2f, 0xba,
    0x2b, 0xce, 0xd5, 0x31, 0xf4, 0xde, 0xbc, 0xbe, 0x55, 0xee, 0xff, 0xe0,
    0x52, 0xfd, 0xfa, 0xaf, 0x62, 0x85, 0xc8, 0x58, 0x1f, 0x2c, 0x3c, 0x60,
    0x61, 0xc9, 0x03, 0xb5, 0x5e, 0x56, 0x6d, 0xd7, 0x2c, 0x1b, 0x03, 0x81,
    0xd0, 0x27, 0xf0, 0xf7, 0x20, 0x15, 0x9d, 0x01, 0x45, 0xda, 0x53, 0x07,
    0x3f, 0xb8, 0xc9, 0x2a, 0x9b, 0xb5, 0x27, 0xf4, 0x1b, 0x2f, 0xb1, 0xd4,
    0x00, 0x41, 0x5d, 0xe7, 0xaf, 0x35, 0x10, 0xc9, 0x1e, 0x20, 0xc8, 0xcf,
    0xc4, 0xf2, 0x8d, 0xe2, 0x65, 0x1a, 0x3f, 0x10, 0x30, 0xfc, 0x45, 0xde,
    0xb0, 0xd5, 0x15, 0x01, 0xa3, 0x4c, 0x15, 0xcd, 0xbc, 0xf0, 0x15, 0x1b,
    0x65, 0x05, 0x05, 0xc2, 0x13, 0x54, 0x0f, 0xfc, 0xaf, 0x3f, 0xb1, 0x2e,
    0x74, 0xfa, 0xe4, 0x5b, 0x2c, 0xd8, 0x5f, 0xdb, 0x04, 0xec, 0xd8, 0xe9,
    0xd3, 0x43, 0x20, 0xd6, 0xea, 0x34, 0xac, 0x33, 0xdb, 0x2c, 0xba, 0x2b,
    0x8e, 0x06, 0xd2, 0x14, 0x4d, 0xde, 0xec, 0x51, 0xf3, 0x98, 0xed, 0x7f,
    0xd1, 0x07, 0x34, 0x01, 0xc2, 0x46, 0xd9, 0x23, 0xd1, 0xb1, 0xa1, 0xbd,
    0x55, 0x33, 0xea, 0x1d, 0xbe, 0x38, 0xcc, 0x04, 0x3e, 0xc4, 0x28, 0xce,
    0xe3, 0xb1, 0x35, 0x50, 0xf1, 0x0d, 0xb8, 0x0d, 0xd5, 0x7b, 0x03, 0x4b,
    0xa1, 0xc1, 0x55, 0x33, 0x1f, 0x53, 0x56, 0x5a, 0x06, 0x3b, 0xd9, 0x07,
    0x18, 0x24, 0xe1, 0x33, 0xd0, 0xc9, 0xda, 0x10, 0x2e, 0x07, 0x4d, 0xf1,
    0xfb, 0xb6, 0xf5, 0xd0, 0xc1, 0x1f, 0x41, 0xd3, 0x27, 0xda, 0x40, 0x48,
    0x30, 0x11, 0x40, 0x3e, 0xff, 0x20, 0x11, 0x2a, 0x0f, 0xe9, 0xfc, 0xbe,
    0x14, 0xc7, 0x0b, 0x3e, 0x24, 0xda, 0xfb, 0x4a, 0xf1, 0xd7, 0xc9, 0xec,
    0x4a, 0xc2, 0x3d, 0xbf, 0x18, 0xd0, 0xb8, 0xfc, 0x3f, 0x43, 0xd1, 0x2a,
    0x1f, 0xbb, 0x03, 0xf9, 0x43, 0xce, 0x7f, 0xd1, 0xd8, 0x4e, 0x03, 0x0f,
    0x1e, 0xb3, 0x03, 0x06, 0x38, 0x1b, 0x03, 0x9c, 0xf0, 0xe2, 0xaa, 0xc1,
    0xee, 0x5f, 0x8f, 0xdd, 0x6f, 0xd0, 0xd8, 0xf0, 0x21, 0xfa, 0x1b, 0x12,
    0x70, 0x99, 0xfe, 0xff, 0x48, 0x4a, 0x1f, 0x65, 0x2f, 0x68, 0xf5, 0xc2,
    0xcc, 0x0b, 0xdb, 0xa7, 0x3b, 0xcb, 0x9c, 0xb0, 0xb0, 0x50, 0xf8, 0x0b,
    0xfa, 0x34, 0xed, 0x3c, 0xe9, 0x0b, 0xbb, 0x0a, 0x2e, 0xda, 0xfe, 0x1c,
    0x39, 0x38, 0xa0, 0x67, 0x3c, 0xf3, 0x01, 0x39, 0x7f, 0x45, 0xc6, 0x1f,
    0x52, 0x9d, 0x1d, 0x1d, 0x37, 0x6f, 0xd1, 0x1f, 0xc3, 0xb2, 0xd2, 0x9a,
    0x25, 0x29, 0xfc, 0x11, 0x06, 0xf7, 0xa8, 0xb2, 0x05, 0xff, 0x7c, 0xc4,
    0xf8, 0x0d, 0x4c, 0x3a, 0xd7, 0xc5, 0x10, 0x10, 0xac, 0xaa, 0xbd, 0x2e,
    0x1c, 0x00, 0x53, 0xc5, 0xdd, 0xe1, 0x0e, 0x46, 0x5d, 0xbd, 0x3c, 0xa1,
    0xa6, 0x0e, 0x16, 0xac, 0x38, 0x40, 0x1b, 0x4e, 0x21, 0xe4, 0xfc, 0xf2,
    0x1e, 0x03, 0xc8, 0xfa, 0x18, 0xd7, 0xcc, 0x17, 0x0b, 0xc6, 0x55, 0x25,
    0x21, 0x05, 0xe1, 0xe8, 0x7f, 0x19, 0xa7, 0x10, 0xee, 0x23, 0x9d, 0xd3,
    0xea, 0x27, 0xc1, 0x33, 0x44, 0xcf, 0xcc, 0xed, 0x60, 0x33, 0xe9, 0xd4,
    0x5c, 0xcc, 0xa9, 0x91, 0xb7, 0x24, 0x10, 0x53, 0x09, 0xb0, 0x2d, 0x09,
    0xd9, 0x17, 0x77, 0x39, 0x36, 0x12, 0xf3, 0x2f, 0xf7, 0xd8, 0x10, 0xe3,
    0x2d, 0x50, 0xfa, 0x0a, 0x06, 0xef, 0x5a, 0x8c, 0x44, 0x03, 0x0b, 0xea,
    0xdb, 0x02, 0xa7, 0x72, 0x40, 0x36, 0xb4, 0x21, 0xe7, 0xcd, 0xd5, 0xcf,
    0x29, 0xd7, 0xd2, 0xbb, 0x33, 0x00, 0xf7, 0x7f, 0x5a, 0xc6, 0xad, 0x39,
    0x2e, 0x25, 0x71, 0xe7, 0x3f, 0xfd, 0xbe, 0xf5, 0x48, 0xc9, 0xf8, 0xf5,
    0xbe, 0x34, 0x24, 0xde, 0xe6, 0xe3, 0xad, 0x0f, 0x39, 0xf5, 0x32, 0x18,
    0xc3, 0xf7, 0x2a, 0xe9, 0xec, 0xae, 0xe6, 0x46, 0xf4, 0xf0, 0xeb, 0xbf,
    0xf8, 0xc8, 0x17, 0x01, 0xd7, 0xaa, 0x3f, 0x20, 0x01, 0x16, 0x22, 0x5b,
    0xf0, 0xa4, 0x4f, 0x61, 0xab, 0x18, 0xdf, 0xed, 0x39, 0xf1, 0x47, 0xd6,
    0x2e, 0x05, 0xad, 0xeb, 0x28, 0x14, 0xa9, 0x33, 0xa0, 0x14, 0xfc, 0xf0,
    0xca, 0x9f, 0x5f, 0xea, 0x0d, 0xcb, 0x37, 0x5f, 0x02, 0xc5, 0xd6, 0x5c,
    0xe1, 0x42, 0xfc, 0x2c, 0x81, 0x0e, 0x03, 0x0b, 0x4d, 0xe6, 0xe0, 0xd4,
    0xef, 0xb5, 0x42, 0x07, 0xc9, 0x41, 0xb6, 0x29, 0x27, 0x69, 0x15, 0xc5,
    0xc1, 0xff, 0xcc, 0x10, 0xc4, 0xe0, 0x99, 0xee, 0xc1, 0xf4, 0xce, 0xea,
    0xe7, 0x04, 0x07, 0x81, 0x6c, 0x08, 0xe9, 0x1f, 0x25, 0xc2, 0x20, 0x3f,
    0xe4, 0x41, 0x1e, 0xce, 0xe2, 0x0c, 0xef, 0xaf, 0x3c, 0x53, 0x09, 0x3f,
    0x01, 0xc2, 0x0e, 0x38, 0xaa, 0x44, 0x26, 0x30, 0x41, 0xcc, 0x42, 0xf7,
    0xf5, 0xf1, 0xc4, 0xfe, 0x3b, 0xf6, 0x13, 0x3c, 0xff, 0xe1, 0x11, 0xf7,
    0x13, 0x18, 0x00, 0xd3, 0x50, 0xc0, 0x59, 0x3d, 0x2e, 0x2f, 0xde, 0x11,
    0x2b, 0xdb, 0x05, 0x06, 0x44, 0xcc, 0xc7, 0x03, 0xc3, 0xe9, 0x39, 0x0f,
    0x30, 0x31, 0x4a, 0xd1, 0x1c, 0xf7, 0xc0, 0x83, 0x0d, 0xd9, 0x3f, 0xd5,
    0x0e, 0x5a, 0xc9, 0x01, 0xe0, 0x4b, 0xd3, 0xeb, 0x31, 0xc8, 0x12, 0x1e,
    0xde, 0xec, 0xb2, 0x23, 0xce, 0x46, 0xf9, 0x20, 0x6a, 0x16, 0x28, 0xa1,
    0xd0, 0xe2, 0xd0, 0xa8, 0x52, 0xec, 0x41, 0x23, 0x00, 0xfb, 0xdc, 0x55,
    0xd9, 0x2c, 0x38, 0xa7, 0x16, 0xa4, 0x81, 0x06, 0xd5, 0x5b, 0xc6, 0xf5,
    0xf9, 0x3d, 0xff, 0x36, 0x38, 0xc8, 0x70, 0xca, 0xc2, 0x65, 0x00, 0xbd,
    0x47, 0xfa, 0xaa, 0x6c, 0xb8, 0x49, 0xc4, 0x2e, 0xc2, 0xad, 0x28, 0x18,
    0xdd, 0x06, 0xc8, 0x19, 0x12, 0xc3, 0x21, 0xd4, 0x2c, 0xf9, 0xe5, 0x9b,
    0xb7, 0x4c, 0x9f, 0x5e, 0x1f, 0x97, 0xe4, 0x08, 0xc8, 0xc4, 0xdb, 0xda,
    0x10, 0x3d, 0xf9, 0xa9, 0x0a, 0x34, 0x6e, 0xf3, 0xd9, 0x4d, 0x33, 0xe4,
    0xaf, 0x25, 0x40, 0x28, 0xc3, 0x26, 0xd3, 0xd3, 0xf6, 0xe1, 0xd2, 0x32,
    0x52, 0x66, 0x73, 0xa2, 0x81, 0x0c, 0xbd, 0x6b, 0x1b, 0x1c, 0xb4, 0xfb,
    0xd9, 0xd3, 0xd0, 0x07, 0x24, 0xb5, 0xfe, 0x44, 0xe4, 0x5d, 0x2a, 0x39,
    0xe9, 0x52, 0x34, 0xef, 0xd5, 0xe6, 0x22, 0xa9, 0xcf, 0x0d, 0x01, 0xca,
    0xb3, 0x63, 0xb7, 0x04, 0x3f, 0x69, 0x43, 0xbf, 0x4b, 0xee, 0xb3, 0x06,
    0xb7, 0xf5, 0xb2, 0x12, 0x01, 0xf8, 0xbd, 0xbd, 0xc7, 0x48, 0x11, 0x9d,
    0x41, 0xdc, 0x06, 0xd8, 0x0a, 0xf6, 0x47, 0x33, 0x3b, 0x7f, 0xdf, 0xfb,
    0x39, 0xc2, 0xd5, 0x45, 0xe6, 0xaf, 0xbd, 0xc2, 0xf3, 0xe5, 0x10, 0x90,
    0xfa, 0xd7, 0x2d, 0x1b, 0x61, 0x10, 0x57, 0x1b, 0x3b, 0xec, 0xaf, 0x33,
    0xfe, 0x48, 0x05, 0x1d, 0xd7, 0x0c, 0xe1, 0xe0, 0x4c, 0xd7, 0xf1, 0xf6,
    0xf8, 0xac, 0x27, 0x41, 0x10, 0x49, 0xf1, 0xb1, 0xd2, 0x01, 0xa8, 0xf4,
    0xb4, 0xce, 0x41, 0x5c, 0x4a, 0xf8, 0xf0, 0xb2, 0x23, 0xff, 0xad, 0xb0,
    0x5f, 0x7f, 0x2b, 0x0b, 0xfe, 0x3d, 0xee, 0x53, 0x1b, 0x34, 0x23, 0x61,
    0x46, 0x39, 0x24, 0xc9, 0xbc, 0x13, 0xef, 0xbb, 0x53, 0x27, 0x1a, 0x99,
    0xda, 0x1d, 0x9f, 0xbe, 0x16, 0x3d, 0xba, 0xe2, 0xd8, 0xdc, 0xce, 0xbf,
    0xd0, 0x4d, 0x09, 0x03, 0xb6, 0xe0, 0xff, 0xff, 0x04, 0x00, 0x00, 0x00,
    0x80, 0x00, 0x00, 0x00, 0xa7, 0xff, 0xff, 0xff, 0x91, 0xfd, 0xff, 0xff,
    0x2c, 0x03, 0x00, 0x00, 0xac, 0x01, 0x00, 0x00, 0x1c, 0x01, 0x00, 0x00,
    0xdb, 0x02, 0x00, 0x00, 0x2d, 0xfd, 0xff, 0xff, 0xf9, 0x08, 0x00, 0x00,
    0xbc, 0x00, 0x00, 0x00, 0xfa, 0x08, 0x00, 0x00, 0xd8, 0x00, 0x00, 0x00,
    0x16, 0x08, 0x00, 0x00, 0xf6, 0xf9, 0xff, 0xff, 0x8d, 0x07, 0x00, 0x00,
    0x36, 0xfb, 0xff, 0xff, 0xbc, 0x03, 0x00, 0x00, 0x94, 0x02, 0x00, 0x00,
    0x53, 0xfd, 0xff, 0xff, 0x6b, 0x01, 0x00, 0x00, 0x51, 0x00, 0x00, 0x00,
    0xf3, 0xfd, 0xff, 0xff, 0xe9, 0xfc, 0xff, 0xff, 0x44, 0xfd, 0xff, 0xff,
    0xe8, 0xff, 0xff, 0xff, 0x26, 0x07, 0x00, 0x00, 0x11, 0xfd, 0xff, 0xff,
    0x28, 0x0c, 0x00, 0x00, 0x4b, 0x00, 0x00, 0x00, 0x28, 0x03, 0x00, 0x00,
    0x35, 0x07, 0x00, 0x00, 0x2d, 0x05, 0x00, 0x00, 0x0b, 0x02, 0x00, 0x00,
    0x42, 0xe1, 0xff, 0xff, 0x04, 0x00, 0x00, 0x00, 0x00, 0x1c, 0x00, 0x00,
    0x4d, 0x0d, 0xe5, 0xe8, 0xe9, 0xf3, 0xea, 0xc6, 0xdf, 0x2d, 0x2b, 0xdc,
    0x0d, 0x24, 0x11, 0x38, 0xf0, 0x05, 0x15, 0xf4, 0x01, 0x17, 0x28, 0x43,
    0x4c, 0x11, 0x37, 0x1a, 0xf3, 0xbe, 0x06, 0xf3, 0xe9, 0x30, 0x2b, 0xf1,
    0xf1, 0x08, 0xfc, 0xe6, 0xf8, 0x10, 0xe7, 0xf2, 0x28, 0xf1, 0xc4, 0xed,
    0xfd, 0x27, 0x1f, 0x03, 0xd7, 0xe3, 0xcf, 0xf0, 0x37, 0xe5, 0x34, 0xdf,
    0x0a, 0xc4, 0x10, 0x12, 0x30, 0xe8, 0x33, 0xe3, 0xe3, 0x0a, 0xe5, 0x0d,
    0xe8, 0x1e, 0x20, 0x0f, 0x22, 0x10, 0xed, 0x07, 0x36, 0xeb, 0xfe, 0x2d,
    0xf3, 0x1e, 0x06, 0x29, 0x52, 0xe3, 0x18, 0x15, 0x24, 0xc6, 0x04, 0x1a,
    0x10, 0x19, 0x1e, 0xdf, 0xcb, 0xf2, 0xe2, 0x06, 0xe2, 0x19, 0x24, 0xd0,
    0xfe, 0x12, 0xf1, 0xcd, 0x0b, 0x11, 0x28, 0xf8, 0xd1, 0xe4, 0xca, 0x23,
    0x49, 0x03, 0x10, 0x20, 0x40, 0xc1, 0x16, 0x1e, 0x10, 0x0e, 0xfa, 0xec,
    0xd3, 0x05, 0xd8, 0xf5, 0xd3, 0xea, 0xe6, 0x08, 0xd0, 0x1b, 0x00, 0xae,
    0xfc, 0x0f, 0x25, 0x14, 0xfb, 0xf1, 0xed, 0xfc, 0x54, 0xd3, 0xed, 0xff,
    0xf4, 0xd8, 0x2a, 0x1e, 0xee, 0xe6, 0x10, 0x20, 0xb7, 0xe6, 0x0c, 0xd7,
    0xed, 0xee, 0xf8, 0x1e, 0xf2, 0x27, 0xff, 0xef, 0x35, 0xcc, 0x04, 0xdf,
    0xe3, 0xdb, 0xfc, 0xef, 0xff, 0xff, 0xef, 0x26, 0x20, 0x11, 0x0b, 0x13,
    0x06, 0x1c, 0xe8, 0x42, 0x0b, 0x1a, 0xe1, 0x07, 0x2a, 0x12, 0xe7, 0xda,
    0xe8, 0x40, 0x20, 0xea, 0x08, 0x1e, 0x21, 0xe7, 0x31, 0x1b, 0xec, 0xfc,
    0x1e, 0xd0, 0xfe, 0x2a, 0xf3, 0x05, 0x23, 0xf7, 0x10, 0x06, 0xec, 0x32,
    0xdd, 0xe7, 0xe9, 0x29, 0xea, 0xf8, 0x2f, 0xfa, 0x23, 0x09, 0xf1, 0x13,
    0xe8, 0xf0, 0x0b, 0xf5, 0x16, 0xe0, 0xd8, 0x2b, 0x31, 0xd7, 0xf4, 0x08,
    0x1b, 0x09, 0x46, 0x00, 0xde, 0xc6, 0x0c, 0x10, 0x39, 0x0d, 0x0a, 0x37,
    0xcf, 0x2f, 0x49, 0xe8, 0xd8, 0x4a, 0x07, 0xe9, 0x36, 0xf7, 0x12, 0x34,
    0x06, 0xe8, 0xec, 0xec, 0x1c, 0xfb, 0x30, 0x09, 0x45, 0x18, 0x4b, 0x1a,
    0xf8, 0xd0, 0x3a, 0x18, 0x21, 0xd5, 0xfe, 0x35, 0xdd, 0x24, 0x2a, 0xdc,
    0xe9, 0x10, 0x20, 0xe0, 0xe3, 0xe9, 0x1a, 0x2e, 0xd7, 0x27, 0x32, 0x29,
    0xdc, 0xf0, 0x0a, 0x2a, 0x16, 0xeb, 0xf3, 0x06, 0xec, 0x22, 0x52, 0x36,
    0x19, 0xe2, 0xdd, 0x1b, 0x16, 0xeb, 0x0e, 0xeb, 0xe3, 0x1d, 0xf1, 0xfd,
    0x0a, 0x36, 0xcf, 0x00, 0x0c, 0xf3, 0x12, 0x12, 0xe2, 0x07, 0xfd, 0x44,
    0xe8, 0x1f, 0x1f, 0x1c, 0xde, 0x21, 0x24, 0x14, 0xf7, 0x05, 0x1a, 0xf6,
    0x0c, 0xf2, 0x45, 0xed, 0x2e, 0x39, 0xed, 0x20, 0x13, 0x1f, 0xfe, 0xf8,
    0xc8, 0x3a, 0x18, 0x2b, 0xc8, 0x1d, 0x11, 0x30, 0x24, 0xed, 0x39, 0x1d,
    0x0f, 0xdd, 0x33, 0x01, 0x08, 0xf4, 0x0f, 0x16, 0x06, 0x25, 0x51, 0xde,
    0x05, 0x02, 0x04, 0x00, 0x25, 0x1e, 0xdd, 0x15, 0xe4, 0x0b, 0x0c, 0x10,
    0x36, 0x19, 0x09, 0xf2, 0xf3, 0x14, 0x24, 0x08, 0x2b, 0xd8, 0x0a, 0x19,
    0x16, 0x19, 0x0c, 0x16, 0xf8, 0xfb, 0x02, 0x06, 0x05, 0xfc, 0xf5, 0x1f,
    0x2b, 0xe9, 0x0b, 0x21, 0xe4, 0xde, 0x0d, 0x1f, 0x28, 0xd6, 0xf7, 0xf5,
    0xfa, 0x0e, 0x20, 0xed, 0x0e, 0x31, 0xfd, 0x15, 0x11, 0xfd, 0x06, 0x02,
    0xef, 0xf9, 0x1a, 0x17, 0x12, 0x24, 0x09, 0xee, 0x2f, 0x13, 0x19, 0x14,
    0xeb, 0xde, 0x06, 0x12, 0xeb, 0x00, 0xfe, 0x03, 0x07, 0x08, 0xcc, 0xdd,
    0x16, 0x18, 0x0e, 0xe1, 0xfe, 0x25, 0xf5, 0x08, 0xff, 0x15, 0xeb, 0x21,
    0x06, 0x23, 0x0d, 0xed, 0x11, 0x1d, 0x0e, 0xf9, 0x23, 0xed, 0xd2, 0xe6,
    0xf9, 0xd4, 0x1b, 0x0e, 0x21, 0xe2, 0xfa, 0x11, 0x00, 0x45, 0x51, 0x13,
    0xf1, 0xe2, 0x15, 0x18, 0x16, 0xf9, 0xb3, 0xe7, 0x29, 0x1f, 0xe4, 0x17,
    0x3d, 0xf1, 0xfe, 0xee, 0x28, 0xe8, 0x01, 0xd0, 0xd2, 0x1e, 0x17, 0x25,
    0x2d, 0xff, 0x00, 0xdc, 0x1c, 0x21, 0x5b, 0x07, 0xee, 0xf3, 0x20, 0xff,
    0x20, 0x00, 0x03, 0xed, 0xe6, 0x36, 0xe6, 0x1e, 0xf0, 0x18, 0xca, 0xb7,
    0x03, 0x01, 0x20, 0x30, 0xfc, 0x0f, 0xde, 0x22, 0xf2, 0x03, 0xea, 0x1e,
    0xed, 0x12, 0x41, 0x2e, 0x29, 0xc6, 0x43, 0x3a, 0x20, 0x36, 0x19, 0xeb,
    0x01, 0x1a, 0xd4, 0x24, 0xfd, 0xeb, 0xcc, 0xf1, 0x11, 0x1c, 0xe6, 0x2c,
    0x11, 0xe5, 0xff, 0x42, 0xce, 0xf9, 0xda, 0xe8, 0x0c, 0xb7, 0x39, 0x10,
    0x03, 0xd0, 0xf4, 0x1b, 0x31, 0x25, 0xce, 0x3c, 0xfc, 0x36, 0xdf, 0xda,
    0x25, 0x29, 0x12, 0x06, 0x1b, 0x2e, 0x1f, 0x22, 0x07, 0xd6, 0x11, 0x17,
    0xfd, 0x05, 0xf5, 0x2e, 0x15, 0xe6, 0x39, 0x07, 0xf2, 0xe9, 0x3a, 0x18,
    0x37, 0xfb, 0xf5, 0xec, 0x11, 0xf1, 0xc4, 0x1f, 0x21, 0x36, 0x36, 0x0e,
    0xc4, 0x1c, 0xe6, 0x43, 0x02, 0x16, 0xf7, 0x0b, 0x05, 0xf8, 0xe1, 0xf4,
    0xe0, 0x16, 0x04, 0xef, 0x2a, 0x0c, 0xde, 0x25, 0xd6, 0x0b, 0xdc, 0x10,
    0x23, 0xe7, 0xd5, 0xea, 0x1a, 0xd9, 0xfb, 0xe5, 0xf7, 0x0e, 0xdb, 0xfa,
    0x20, 0xf8, 0x1f, 0xe9, 0xda, 0xf0, 0xf7, 0x27, 0x13, 0xd1, 0xf2, 0xd3,
    0xde, 0x1b, 0xf4, 0xf3, 0xda, 0x1b, 0xe5, 0xe9, 0x19, 0xe7, 0x15, 0xf4,
    0xdf, 0x00, 0xf5, 0xe5, 0xde, 0x0a, 0x07, 0x12, 0xd4, 0xf2, 0x0a, 0xe1,
    0x02, 0xf4, 0x18, 0x09, 0xdb, 0xf8, 0xd9, 0xe8, 0x12, 0xe2, 0xfa, 0x13,
    0xfd, 0xf4, 0x13, 0x23, 0x0f, 0xed, 0xf3, 0xe4, 0xe6, 0xf5, 0xdc, 0x0f,
    0xe9, 0xdf, 0x24, 0xf7, 0x02, 0xf3, 0x03, 0xfb, 0xeb, 0x1f, 0x08, 0xf4,
    0x11, 0x1b, 0x1a, 0x2d, 0x01, 0xeb, 0xf8, 0x18, 0xf8, 0xf1, 0x09, 0xf9,
    0xec, 0x2b, 0x0d, 0xf6, 0xe1, 0x0d, 0x01, 0xfb, 0xd8, 0x1e, 0xf6, 0x0e,
    0x0a, 0xef, 0xdd, 0x00, 0x21, 0xe4, 0x0b, 0x10, 0xf7, 0x23, 0x0f, 0x08,
    0xe5, 0xd8, 0xea, 0x27, 0x16, 0x1a, 0xf0, 0xfb, 0x24, 0xec, 0x11, 0x18,
    0xd3, 0xed, 0xf6, 0xde, 0x09, 0x02, 0x24, 0x08, 0xf2, 0x27, 0x12, 0xd4,
    0xe0, 0x29, 0xfd, 0x13, 0xff, 0x1c, 0xf3, 0xe0, 0x16, 0xe8, 0xdf, 0x09,
    0xe9, 0x16, 0xf3, 0x06, 0xdf, 0x25, 0x1c, 0x1d, 0x0b, 0x1f, 0x1a, 0xfa,
    0x22, 0xd8, 0xf5, 0x23, 0xf2, 0xde, 0xf4, 0x13, 0xe7, 0xfc, 0x19, 0x1e,
    0xde, 0x1a, 0xe1, 0xf7, 0xeb, 0xfe, 0xe0, 0xf5, 0xea, 0xf1, 0x08, 0xe1,
    0xf5, 0xef, 0xdf, 0xe1, 0x17, 0x0e, 0xf2, 0x1f, 0x12, 0xf5, 0x0b, 0xfa,
    0xe1, 0x06, 0x00, 0xed, 0x06, 0xec, 0xfc, 0xf4, 0xdb, 0xf8, 0x1e, 0x2e,
    0x1e, 0x0f, 0x14, 0x07, 0x1c, 0x0f, 0x0f, 0xe1, 0xf9, 0xf7, 0x00, 0x05,
    0xd8, 0x16, 0xe8, 0xf5, 0x30, 0x0d, 0xf5, 0x1f, 0x21, 0xf4, 0xf6, 0x15,
    0xde, 0x0d, 0x32, 0x33, 0x1f, 0x1f, 0xc2, 0x2e, 0x0b, 0x20, 0x02, 0x25,
    0xfd, 0xeb, 0x1d, 0xfe, 0xef, 0xe1, 0x01, 0x08, 0x25, 0xf4, 0xfb, 0x2e,
    0xeb, 0x24, 0xe6, 0x42, 0xed, 0xe9, 0xcb, 0xf6, 0xcf, 0x19, 0x30, 0xf8,
    0xfd, 0x2c, 0xe3, 0xe5, 0x16, 0xe6, 0x11, 0xf1, 0x0c, 0x0b, 0x1c, 0xf7,
    0x1f, 0xd7, 0xfd, 0x2d, 0x20, 0xef, 0x3d, 0x02, 0xe0, 0x1f, 0x0d, 0x13,
    0xf4, 0xed, 0x00, 0xd4, 0xc3, 0x16, 0xf9, 0x0a, 0xf4, 0x17, 0x00, 0xd5,
    0x1d, 0x17, 0xe5, 0x37, 0x04, 0x1f, 0x36, 0xfe, 0xf7, 0xfd, 0x09, 0x0b,
    0x1e, 0xda, 0x1a, 0x3c, 0xeb, 0xd4, 0xe7, 0x17, 0x09, 0x03, 0x1a, 0xce,
    0x17, 0xe8, 0x13, 0x20, 0xbd, 0xf7, 0xda, 0xc3, 0x33, 0x1c, 0x10, 0x18,
    0xef, 0x38, 0x28, 0xfa, 0xfa, 0xe8, 0x09, 0xdb, 0xec, 0xdf, 0x09, 0x16,
    0xf9, 0x02, 0xf1, 0x1e, 0x0c, 0x29, 0xf2, 0x0c, 0x19, 0x09, 0xf1, 0x07,
    0xea, 0x00, 0x19, 0x0b, 0xea, 0x02, 0x2d, 0x26, 0x15, 0x0d, 0x18, 0x24,
    0xd8, 0xfb, 0xfe, 0x26, 0xfd, 0xe6, 0x32, 0xdd, 0x20, 0xe4, 0xdb, 0x10,
    0x0f, 0x0c, 0x13, 0xfe, 0xfc, 0x0d, 0x28, 0x15, 0x14, 0xfe, 0xe2, 0x1b,
    0x15, 0xf1, 0x0a, 0xc3, 0xbb, 0xe6, 0xfe, 0x24, 0xe7, 0xd8, 0x26, 0x10,
    0xff, 0xef, 0xd9, 0xcb, 0x1b, 0xeb, 0x1b, 0xd9, 0x1a, 0xf1, 0xee, 0xe9,
    0x2b, 0xcd, 0xc7, 0xfd, 0x3f, 0x2d, 0x20, 0xbd, 0x26, 0x2b, 0x07, 0x43,
    0xfe, 0xf6, 0x35, 0x1c, 0xd7, 0xed, 0xd6, 0x18, 0x00, 0x10, 0x02, 0xe0,
    0x29, 0xda, 0xf3, 0xeb, 0x01, 0xeb, 0x0d, 0x0c, 0x50, 0x32, 0xfc, 0xf2,
    0x19, 0x54, 0x17, 0xde, 0xce, 0x27, 0x02, 0xff, 0xf6, 0xfe, 0xd6, 0x0f,
    0x13, 0x0d, 0xbd, 0xf4, 0x24, 0x1d, 0x01, 0x05, 0x33, 0x1c, 0x0a, 0xfc,
    0xdc, 0xe9, 0xfc, 0xd4, 0xf3, 0xe6, 0xeb, 0x10, 0x20, 0x2e, 0x01, 0x04,
    0x0d, 0x36, 0x0e, 0xf5, 0x1f, 0xf0, 0xe8, 0x39, 0x27, 0xff, 0x1e, 0x16,
    0x0d, 0xef, 0xfb, 0xe4, 0x1e, 0x43, 0xd9, 0x07, 0xe3, 0x07, 0x24, 0xf7,
    0x50, 0xe4, 0xe3, 0x2d, 0x5a, 0x21, 0x31, 0x27, 0xe4, 0x2a, 0x3c, 0x0c,
    0x2e, 0xdc, 0x10, 0xee, 0xfd, 0xe6, 0x15, 0x1f, 0x0f, 0xfa, 0x1a, 0x09,
    0x1e, 0xf5, 0xed, 0xea, 0x05, 0x14, 0xed, 0x00, 0x21, 0x0a, 0x32, 0x3c,
    0x32, 0x0f, 0x29, 0x15, 0x0d, 0x25, 0x0e, 0x24, 0x09, 0x09, 0xc3, 0x2f,
    0x2d, 0x2c, 0xf2, 0x2d, 0xfb, 0xf4, 0x1b, 0xf8, 0x1a, 0xff, 0xd4, 0xe1,
    0xf2, 0xff, 0xf9, 0x00, 0x34, 0x23, 0x0d, 0x26, 0x4c, 0x21, 0x41, 0xf2,
    0x12, 0xfd, 0x24, 0xe5, 0x12, 0x0b, 0xcb, 0xf7, 0x11, 0xf5, 0xd1, 0x1a,
    0xdd, 0x08, 0x17, 0xc9, 0x1e, 0xf7, 0x10, 0xe0, 0xf8, 0xfa, 0x39, 0x1a,
    0xff, 0x0c, 0xf5, 0xe9, 0x24, 0xf3, 0xfb, 0x30, 0xe7, 0x1e, 0x07, 0x00,
    0x24, 0xcf, 0xd7, 0x32, 0x2e, 0x32, 0xe1, 0x10, 0x0f, 0x1b, 0x02, 0xc2,
    0x2d, 0x34, 0x0c, 0x3b, 0x00, 0xe9, 0x12, 0x0f, 0x38, 0xf5, 0x3c, 0x49,
    0x01, 0x18, 0x49, 0xdd, 0x42, 0x0b, 0xbb, 0x10, 0xf1, 0xf5, 0xed, 0x06,
    0xf3, 0xe5, 0x1d, 0x11, 0x2e, 0x06, 0x01, 0xf0, 0x1d, 0xeb, 0x6e, 0x1b,
    0x19, 0x17, 0x3a, 0x0a, 0x1a, 0xef, 0xb6, 0xb9, 0xfa, 0xfc, 0x68, 0xfd,
    0xd2, 0x03, 0xbf, 0x1a, 0xff, 0x32, 0xba, 0x4d, 0xe1, 0x28, 0x0a, 0x3e,
    0x4f, 0xc3, 0xe2, 0xd4, 0xd4, 0x06, 0x04, 0x81, 0x2f, 0xde, 0x2d, 0xfe,
    0x19, 0xf8, 0xce, 0xec, 0x00, 0x07, 0x46, 0xc2, 0x02, 0x1e, 0xbe, 0x13,
    0xf6, 0x37, 0xfd, 0x27, 0x1b, 0x00, 0x0f, 0xff, 0x41, 0x9a, 0xe3, 0xa0,
    0xe5, 0xea, 0xf1, 0xa0, 0xf9, 0xef, 0x1d, 0xf1, 0x02, 0x3c, 0xf4, 0xfc,
    0x1e, 0x31, 0x44, 0x06, 0xee, 0xbb, 0xc3, 0xff, 0xf1, 0x19, 0xe5, 0x29,
    0xe3, 0x2d, 0xef, 0xfd, 0x49, 0xd6, 0x04, 0xd5, 0x01, 0xd8, 0x00, 0xc9,
    0xf7, 0x0f, 0x1f, 0xd6, 0xfb, 0x0d, 0xde, 0xee, 0x0c, 0x12, 0x4b, 0x06,
    0x32, 0xd0, 0xaa, 0x31, 0xb5, 0x1f, 0xf5, 0x23, 0x1c, 0x03, 0xdb, 0x02,
    0x08, 0xba, 0xd6, 0xf2, 0x1e, 0x00, 0x20, 0xba, 0x1d, 0xd8, 0x42, 0x27,
    0xe7, 0x23, 0x07, 0xe3, 0x14, 0xfd, 0x0b, 0x0c, 0x0d, 0xb6, 0xc2, 0x21,
    0xf5, 0x06, 0x1a, 0x21, 0x22, 0x02, 0x20, 0xe7, 0x1d, 0xb0, 0x32, 0xe4,
    0xbd, 0x2a, 0x45, 0xbd, 0x0a, 0x3b, 0x1d, 0x36, 0x27, 0xda, 0xcb, 0xa8,
    0xe2, 0x0d, 0x13, 0x06, 0x39, 0xe2, 0xcb, 0x32, 0x1e, 0x4d, 0x02, 0xf4,
    0x0d, 0xdc, 0x2f, 0x22, 0x13, 0xed, 0x08, 0xef, 0xcc, 0xfd, 0x05, 0xc1,
    0x05, 0xe2, 0x31, 0x2a, 0xe8, 0x1a, 0xe5, 0x9d, 0xf8, 0xe8, 0xdd, 0xeb,
    0x27, 0x05, 0x1c, 0x08, 0xe7, 0x10, 0x0b, 0xfa, 0xf3, 0xd5, 0xde, 0x22,
    0x0f, 0x04, 0xe9, 0x1d, 0xee, 0x0a, 0xf1, 0xe7, 0x01, 0xf7, 0xdc, 0xf6,
    0xf8, 0x0e, 0xdf, 0x21, 0xd8, 0x1d, 0xf9, 0x21, 0xd7, 0xfb, 0x09, 0x1c,
    0x0d, 0x16, 0xd8, 0x20, 0x22, 0x16, 0x1a, 0xfe, 0x01, 0xe4, 0xd7, 0x07,
    0xef, 0xdb, 0xfb, 0xd9, 0x13, 0x24, 0xe0, 0x09, 0x17, 0xd9, 0x26, 0x0b,
    0x1d, 0x0c, 0xf7, 0xf2, 0xd4, 0xe7, 0x0e, 0x1d, 0x22, 0xd9, 0xf1, 0x0a,
    0x19, 0xf7, 0x02, 0xdc, 0xed, 0xf4, 0xea, 0x20, 0xd6, 0x1e, 0x19, 0xd6,
    0xe6, 0xf1, 0xfa, 0x0d, 0xe8, 0x04, 0xf3, 0xd7, 0x10, 0xec, 0xee, 0x20,
    0xed, 0xd5, 0x19, 0xfd, 0xde, 0x07, 0xf0, 0xdf, 0xfd, 0x13, 0x22, 0x22,
    0xf1, 0x07, 0x0b, 0x23, 0xf2, 0x0e, 0x15, 0x25, 0xf5, 0x0d, 0x18, 0xdc,
    0x23, 0xdb, 0xf0, 0x17, 0xd0, 0xfd, 0x17, 0xf9, 0x13, 0x1c, 0xd9, 0xfe,
    0x14, 0x11, 0xf1, 0x24, 0x1c, 0xfb, 0x05, 0x16, 0x0a, 0xe4, 0xd9, 0x1c,
    0x1e, 0x0e, 0xdb, 0x08, 0x08, 0x17, 0xd7, 0x17, 0xe6, 0xe8, 0x1d, 0xe9,
    0x09, 0xfb, 0x08, 0x1e, 0xe8, 0xee, 0xf5, 0xf2, 0xf6, 0xf7, 0xe5, 0xd9,
    0x1a, 0xfa, 0xee, 0xe3, 0xea, 0x0a, 0x1b, 0x1d, 0xe7, 0xdc, 0x26, 0xdb,
    0xf2, 0xd5, 0xde, 0x24, 0xd6, 0x10, 0x0d, 0x18, 0x12, 0xeb, 0x26, 0x0d,
    0x1c, 0x08, 0xf7, 0x18, 0xf1, 0xfe, 0x02, 0xd7, 0x16, 0xed, 0xee, 0x0b,
    0xd7, 0x1f, 0xf4, 0xe1, 0xec, 0x1e, 0xd9, 0xda, 0xd5, 0xdb, 0x12, 0x22,
    0xe0, 0x15, 0xea, 0xe3, 0xb7, 0xf5, 0xf6, 0x34, 0xfd, 0x41, 0x2c, 0x11,
    0x33, 0x45, 0xd1, 0x2e, 0x05, 0xf2, 0xe2, 0x23, 0xd1, 0x09, 0x03, 0x14,
    0x0a, 0x47, 0x02, 0xf5, 0xde, 0x20, 0x07, 0x1b, 0xdd, 0xf9, 0xf5, 0x41,
    0x05, 0x07, 0xd3, 0x32, 0x0b, 0x16, 0x15, 0x01, 0x04, 0xfb, 0xdc, 0x2b,
    0x2a, 0xd7, 0xf0, 0x03, 0xe1, 0xfb, 0xf3, 0xef, 0x09, 0xfb, 0x47, 0xfa,
    0x16, 0x2c, 0xec, 0x0d, 0xbd, 0x1c, 0x0f, 0xf0, 0x24, 0xed, 0xd6, 0x32,
    0x0f, 0x06, 0xe4, 0x19, 0x02, 0x23, 0x06, 0x1b, 0x04, 0x28, 0x0f, 0x09,
    0xe4, 0x06, 0x2a, 0xed, 0x17, 0x0f, 0x19, 0x21, 0x00, 0xf5, 0x08, 0x29,
    0xea, 0x04, 0xf7, 0xf7, 0x00, 0xe2, 0xfa, 0x24, 0x12, 0xeb, 0x17, 0x23,
    0xe5, 0x39, 0xcc, 0x03, 0xe8, 0xd4, 0x15, 0x1d, 0x12, 0xfe, 0x07, 0xea,
    0x05, 0xf7, 0x26, 0xf6, 0x08, 0x0b, 0x3e, 0x25, 0xfd, 0x1c, 0xec, 0xec,
    0x27, 0xe3, 0x07, 0x0d, 0x09, 0xfa, 0x08, 0x30, 0x0d, 0x3d, 0x25, 0x2b,
    0xf8, 0xd0, 0x27, 0xe7, 0x1f, 0xdd, 0x1a, 0xfd, 0xec, 0xf7, 0x23, 0x29,
    0x26, 0x4b, 0x0f, 0xf7, 0xff, 0x12, 0x05, 0x1c, 0xf1, 0x31, 0x21, 0xe3,
    0xe7, 0x36, 0xdb, 0xdc, 0xd6, 0x2f, 0xf9, 0x24, 0xfa, 0xeb, 0x24, 0x19,
    0x28, 0x07, 0x2f, 0xe5, 0x20, 0x27, 0xfb, 0x07, 0xc6, 0xfb, 0xe4, 0x05,
    0x05, 0x08, 0x12, 0x09, 0xe5, 0x27, 0x0b, 0xfa, 0x0a, 0xf7, 0x0a, 0x33,
    0x19, 0x17, 0x07, 0x3f, 0xe9, 0xf0, 0x40, 0x26, 0xf0, 0xdb, 0x00, 0xf8,
    0x2a, 0x0b, 0x17, 0x07, 0xda, 0x00, 0xe2, 0xf3, 0x1f, 0x3d, 0xdf, 0x03,
    0xeb, 0x40, 0xe1, 0xf3, 0xd6, 0x07, 0x03, 0xc4, 0x0e, 0x1b, 0x02, 0x33,
    0x1d, 0xe3, 0xc5, 0x1d, 0x28, 0x29, 0x21, 0xce, 0xff, 0xf5, 0xe9, 0xee,
    0xf1, 0xef, 0x16, 0xfe, 0xe0, 0x21, 0x07, 0xf3, 0xff, 0x2c, 0xd6, 0x17,
    0xef, 0x01, 0x1a, 0xee, 0xd5, 0xeb, 0xea, 0x08, 0xeb, 0xf1, 0xff, 0xff,
    0xff, 0xf1, 0x11, 0x09, 0x3c, 0xfb, 0x06, 0x19, 0x17, 0x33, 0xe7, 0xc5,
    0xf5, 0x22, 0xee, 0x03, 0x2e, 0x2d, 0x9d, 0xf6, 0x01, 0x0b, 0xf0, 0xd3,
    0xce, 0xf3, 0x28, 0xfa, 0xcc, 0x1b, 0x08, 0xee, 0x07, 0xf1, 0x29, 0x1f,
    0x3d, 0xc7, 0xf1, 0x40, 0x27, 0xfc, 0xb6, 0xd4, 0x2e, 0x21, 0x25, 0x25,
    0x40, 0xf9, 0xd2, 0xea, 0xf3, 0x43, 0x32, 0x15, 0xd6, 0xd2, 0x23, 0x08,
    0x00, 0xe6, 0x0c, 0x01, 0xec, 0xc5, 0x07, 0xee, 0x37, 0xfe, 0x21, 0x23,
    0x0e, 0x11, 0xd6, 0xc2, 0x1f, 0x1f, 0x23, 0xfd, 0x3b, 0x09, 0xb7, 0xfa,
    0x20, 0x4e, 0xd6, 0xf4, 0xc9, 0xf7, 0xd7, 0x23, 0x06, 0x16, 0x20, 0x25,
    0xf6, 0xf0, 0x12, 0x22, 0x31, 0xf4, 0xd3, 0x12, 0xd8, 0xfc, 0xea, 0xde,
    0x2b, 0x13, 0xec, 0xe8, 0x20, 0x31, 0x10, 0xf3, 0x20, 0x31, 0xf5, 0x04,
    0xee, 0xcb, 0x1d, 0x24, 0x08, 0x15, 0x1c, 0x1a, 0x1a, 0xd3, 0x21, 0x14,
    0xec, 0xe0, 0xf7, 0x25, 0xe3, 0x28, 0xef, 0xbc, 0xf9, 0x0d, 0xe5, 0xfe,
    0x1a, 0x18, 0x0a, 0x06, 0xcb, 0x0b, 0xef, 0x0f, 0x08, 0x06, 0x25, 0xec,
    0xfc, 0xe9, 0xff, 0xd5, 0xe4, 0xdd, 0x1b, 0xb1, 0x1a, 0x07, 0x00, 0xfb,
    0x0c, 0x2a, 0x13, 0xf8, 0x28, 0xf8, 0x22, 0xe7, 0xc1, 0xab, 0xdc, 0x16,
    0x4f, 0xfe, 0x15, 0x0d, 0x3a, 0xf4, 0x03, 0xf5, 0xf7, 0x48, 0x2f, 0xf6,
    0xf3, 0x34, 0xf4, 0x15, 0x38, 0x31, 0x6a, 0x0d, 0x08, 0x49, 0x2a, 0x6a,
    0xa8, 0x37, 0xf9, 0x0a, 0xb9, 0xb7, 0x1d, 0xf2, 0x11, 0xf0, 0xe5, 0x10,
    0x3f, 0x2a, 0x09, 0xd1, 0xd5, 0xfd, 0x32, 0xcc, 0xb3, 0xf6, 0xd2, 0x2c,
    0x1d, 0x17, 0x36, 0x18, 0x33, 0x1e, 0x1a, 0x17, 0x9a, 0x1e, 0xfd, 0xf5,
    0xb7, 0xbd, 0xec, 0x39, 0x06, 0xe7, 0x02, 0x12, 0x17, 0x4b, 0x16, 0x23,
    0x0d, 0x02, 0x15, 0xe7, 0xae, 0x36, 0xc7, 0xfb, 0x20, 0x08, 0x09, 0x28,
    0x21, 0xee, 0x0d, 0x0c, 0xbd, 0x20, 0xfc, 0x30, 0xc3, 0xdf, 0xfd, 0x03,
    0x00, 0xbf, 0x33, 0x1f, 0x00, 0x40, 0x26, 0xfe, 0xd9, 0xec, 0xfb, 0x01,
    0xc0, 0x27, 0x1a, 0x31, 0x0e, 0x2b, 0x16, 0xdc, 0x00, 0xfd, 0x46, 0x20,
    0x95, 0x21, 0x0a, 0x19, 0xca, 0x07, 0xf3, 0xff, 0x22, 0xda, 0x13, 0x2e,
    0x2e, 0x23, 0x38, 0x02, 0x0e, 0x0c, 0x27, 0xea, 0xc3, 0x0f, 0x06, 0x41,
    0xfe, 0x12, 0x0d, 0x2c, 0x31, 0xff, 0xda, 0x29, 0xe4, 0x55, 0x0a, 0x1c,
    0xea, 0xf4, 0xd0, 0x1b, 0x36, 0xf5, 0x10, 0xfe, 0xf8, 0x27, 0x28, 0xf1,
    0xf2, 0xf8, 0x1b, 0x10, 0xfd, 0xfd, 0xe6, 0xfb, 0x00, 0xfa, 0x17, 0x2e,
    0xed, 0xfd, 0xd4, 0x09, 0xd9, 0x1d, 0x3a, 0x16, 0xba, 0xe4, 0x06, 0x34,
    0x1e, 0x28, 0x21, 0x1d, 0xe1, 0x1c, 0x23, 0xe5, 0x11, 0x2d, 0x38, 0xf6,
    0xb3, 0x1a, 0xc0, 0x40, 0xfd, 0x11, 0xfb, 0xfa, 0x23, 0xfa, 0x0a, 0x06,
    0xde, 0x07, 0xed, 0x26, 0xe9, 0xd3, 0x1c, 0x19, 0x11, 0x36, 0x36, 0x37,
    0x4b, 0x36, 0xc9, 0xfb, 0xf6, 0x01, 0xed, 0x09, 0xf2, 0x18, 0xe6, 0xd1,
    0x1c, 0x47, 0x23, 0x06, 0xf0, 0x16, 0x2f, 0xfc, 0xae, 0x2a, 0x36, 0x0a,
    0x07, 0x1b, 0x21, 0xf8, 0x3c, 0xf9, 0x0a, 0x06, 0x4a, 0xfc, 0xd9, 0xe1,
    0x25, 0xe8, 0xf4, 0xe9, 0xd5, 0x31, 0x00, 0x20, 0x30, 0x06, 0x3a, 0xcf,
    0xf6, 0x01, 0x36, 0x43, 0xbe, 0x08, 0x16, 0x0a, 0xeb, 0xcc, 0x34, 0x23,
    0x28, 0xd0, 0x1b, 0x13, 0x27, 0xf0, 0xfd, 0x02, 0x0a, 0xe6, 0xdb, 0xfe,
    0xf7, 0x0d, 0xf9, 0xcc, 0x02, 0x10, 0x0e, 0xdc, 0x1a, 0x1a, 0x24, 0xe1,
    0xdf, 0x27, 0xe9, 0x19, 0xfc, 0xf0, 0x1f, 0xdd, 0x33, 0x12, 0x24, 0x10,
    0x06, 0x49, 0xd9, 0x0d, 0x1b, 0xd8, 0xe7, 0x19, 0xf2, 0xe4, 0xf6, 0x10,
    0xf4, 0xf7, 0xfe, 0x1b, 0xfc, 0x18, 0x16, 0xfc, 0xc9, 0x16, 0x2a, 0xef,
    0x0d, 0x14, 0x1b, 0x0a, 0x18, 0x0b, 0x0b, 0x0a, 0xec, 0x5b, 0xed, 0x05,
    0xcc, 0x0c, 0xf5, 0x0d, 0xfc, 0xd6, 0xf0, 0xe6, 0xf2, 0x0e, 0x3a, 0xe7,
    0x28, 0x17, 0x0f, 0x10, 0x0d, 0xfa, 0x05, 0xe6, 0x07, 0x24, 0x21, 0xfc,
    0x16, 0xe6, 0xd6, 0xf8, 0x1b, 0x23, 0xc5, 0x29, 0x1a, 0xed, 0xf6, 0x5e,
    0xf6, 0xd0, 0x12, 0xfb, 0x07, 0x2d, 0xe2, 0xd7, 0xc7, 0x0b, 0xfb, 0xd4,
    0x25, 0x18, 0x19, 0xf3, 0x1d, 0x25, 0x14, 0x1a, 0x13, 0x18, 0xe3, 0x11,
    0x03, 0x09, 0xf1, 0x03, 0xf6, 0xf2, 0x13, 0x15, 0x1b, 0xf8, 0x0c, 0xe8,
    0x39, 0x2b, 0x21, 0x11, 0xee, 0x20, 0x1b, 0x01, 0xd8, 0x08, 0xd9, 0x1c,
    0x0d, 0x1f, 0x03, 0xe9, 0xf6, 0xc9, 0xd0, 0x0f, 0xb7, 0x21, 0x3d, 0x1c,
    0xe6, 0x39, 0xf2, 0x06, 0x1c, 0x0d, 0x30, 0x41, 0x12, 0xfe, 0xe7, 0x36,
    0x1a, 0x13, 0x1b, 0xf0, 0x42, 0xf5, 0xfd, 0xe0, 0x33, 0x0a, 0xe4, 0x07,
    0x11, 0x05, 0x23, 0xf1, 0x08, 0xdb, 0x44, 0x21, 0xc1, 0x2d, 0xe8, 0x0d,
    0x02, 0x18, 0xff, 0x37, 0x2c, 0x09, 0x04, 0x31, 0x38, 0x21, 0xb9, 0x1f,
    0x2f, 0xea, 0x0b, 0x34, 0x22, 0x36, 0x0b, 0x05, 0xfc, 0x38, 0x33, 0x1c,
    0x26, 0x0c, 0x21, 0x1b, 0x11, 0x20, 0xf4, 0x24, 0x09, 0x03, 0xea, 0x09,
    0xf5, 0xd7, 0xf2, 0x00, 0xfd, 0x21, 0xd2, 0x23, 0xeb, 0x03, 0x1b, 0x2f,
    0xdb, 0x0a, 0xda, 0xe9, 0xeb, 0x00, 0x37, 0xf9, 0x0a, 0xd2, 0x38, 0xcf,
    0xd9, 0x3f, 0x01, 0xd5, 0x18, 0x30, 0xf7, 0xeb, 0x08, 0x14, 0xdb, 0xee,
    0x00, 0xea, 0xbd, 0x38, 0x23, 0xe4, 0x0b, 0x0a, 0xe1, 0xd2, 0x27, 0x16,
    0x16, 0x13, 0x23, 0xfa, 0x0e, 0xca, 0x32, 0xc6, 0xe6, 0x28, 0xe1, 0xe6,
    0x2a, 0x0c, 0xd6, 0xfe, 0xe5, 0xe6, 0xd8, 0xda, 0x0d, 0x1a, 0x20, 0x13,
    0x08, 0x0c, 0x26, 0xfd, 0x18, 0xdc, 0xe6, 0xd7, 0x08, 0xfd, 0xe3, 0x35,
    0xd1, 0xd7, 0x2c, 0x27, 0xc3, 0xff, 0x01, 0xbf, 0x05, 0xeb, 0xea, 0x0b,
    0xca, 0xe1, 0x1d, 0x01, 0x39, 0xfb, 0xf2, 0x05, 0x1e, 0xe4, 0x13, 0xd7,
    0x1e, 0x1d, 0x06, 0xdf, 0x1d, 0x1d, 0xc6, 0x36, 0xd6, 0x07, 0x2e, 0x19,
    0x07, 0x0a, 0xff, 0xb9, 0x37, 0xec, 0xeb, 0x1a, 0xcf, 0xb9, 0xf6, 0xdf,
    0x08, 0xfe, 0xf0, 0x01, 0xfa, 0xf3, 0xd8, 0xfe, 0x26, 0xf6, 0xfb, 0xee,
    0x1a, 0x0d, 0x09, 0xe8, 0xd2, 0xf2, 0x1f, 0x14, 0xe1, 0xec, 0xfd, 0xd7,
    0xda, 0x07, 0x05, 0x01, 0x16, 0xe4, 0x22, 0xde, 0xe8, 0x1b, 0xdc, 0x12,
    0xe0, 0xf8, 0xd7, 0xd8, 0xf6, 0xe8, 0xf4, 0xd6, 0xdb, 0xe3, 0xd9, 0xfb,
    0x24, 0x0d, 0xe9, 0xe0, 0x09, 0xe0, 0xff, 0xde, 0xfd, 0xf8, 0x1e, 0xfb,
    0xf7, 0x22, 0xd5, 0x07, 0x1f, 0x02, 0xf3, 0x11, 0x25, 0xf1, 0xe2, 0x21,
    0x1d, 0x00, 0xd0, 0xf3, 0x0d, 0x19, 0xe4, 0x02, 0x0a, 0xee, 0xe5, 0x10,
    0xfa, 0xe6, 0x03, 0x0d, 0x1b, 0xe8, 0xd5, 0xd8, 0x05, 0xdd, 0xd4, 0xed,
    0xfb, 0xe0, 0xde, 0x1c, 0xec, 0x1a, 0x20, 0xe0, 0x27, 0xdb, 0xed, 0xe0,
    0x00, 0x1e, 0xe2, 0xdc, 0xf8, 0xfd, 0x15, 0xdc, 0x0a, 0xdb, 0x21, 0xee,
    0x0d, 0xd7, 0x17, 0x29, 0x1a, 0x12, 0x08, 0x22, 0x17, 0x15, 0x14, 0x15,
    0xf4, 0xff, 0xf7, 0xd8, 0xf0, 0x06, 0xe1, 0xfd, 0x1e, 0x04, 0xe0, 0xfc,
    0xfa, 0x25, 0x23, 0xf1, 0xd8, 0xdc, 0x1a, 0x10, 0xe5, 0x00, 0xdf, 0x16,
    0xe6, 0xee, 0xe9, 0x07, 0x18, 0x11, 0x03, 0xf3, 0x0b, 0xde, 0xe4, 0xff,
    0xed, 0xed, 0x0e, 0x02, 0x13, 0x1e, 0x06, 0xe5, 0x17, 0x0c, 0xe2, 0xf0,
    0x20, 0x03, 0xd7, 0x01, 0xd1, 0xe7, 0xdb, 0x20, 0x10, 0x17, 0xe5, 0xef,
    0xec, 0xf9, 0xe0, 0x02, 0x25, 0x14, 0xd9, 0x13, 0x0c, 0x06, 0x15, 0xec,
    0x12, 0xe4, 0x0b, 0xd4, 0xfe, 0x00, 0x0b, 0x1c, 0xed, 0x0c, 0xf5, 0x13,
    0xfc, 0xdc, 0x04, 0xe5, 0xd6, 0x11, 0x0c, 0xfd, 0x06, 0xfb, 0xeb, 0xdd,
    0xf1, 0xf9, 0xfe, 0x16, 0xf2, 0xec, 0x2d, 0xcc, 0x0a, 0x01, 0xfe, 0x47,
    0x00, 0x23, 0xd4, 0x0a, 0xf6, 0xdc, 0xce, 0xc9, 0x16, 0xd4, 0xc7, 0xd1,
    0x2f, 0x1f, 0x15, 0xb3, 0xc2, 0x15, 0x0a, 0xfc, 0xf7, 0x3e, 0xda, 0xd8,
    0x07, 0x4b, 0xed, 0xd9, 0xf0, 0xf3, 0xee, 0x26, 0xf7, 0xd2, 0x35, 0xf7,
    0x23, 0x10, 0xcf, 0x24, 0xfd, 0xf6, 0x2a, 0xcd, 0x1a, 0xda, 0xfe, 0x23,
    0xd3, 0x2d, 0xd2, 0xcb, 0x1f, 0x2e, 0x16, 0xfc, 0x12, 0x0e, 0xc8, 0xff,
    0xcf, 0x2e, 0x3d, 0xf5, 0x41, 0xf4, 0xe1, 0x06, 0xf3, 0x1e, 0xf4, 0x2b,
    0x27, 0xdd, 0x00, 0x12, 0x45, 0x02, 0xf6, 0xfd, 0xde, 0xe1, 0x0e, 0xd9,
    0x19, 0xf5, 0x28, 0x25, 0x4b, 0x40, 0x16, 0x04, 0xd0, 0x21, 0xf5, 0x01,
    0x24, 0xfb, 0xbc, 0x1e, 0x13, 0xe0, 0xf6, 0x47, 0xf4, 0x22, 0x2d, 0x14,
    0x22, 0x0c, 0xfb, 0xf5, 0xf7, 0xe7, 0xe1, 0x09, 0x31, 0xf5, 0xf3, 0x10,
    0x4f, 0x04, 0x28, 0xff, 0x28, 0x05, 0x32, 0x2f, 0x23, 0x23, 0xc5, 0x08,
    0x3d, 0xee, 0xec, 0x2c, 0x05, 0x00, 0x44, 0x04, 0x17, 0x42, 0x15, 0x0b,
    0x0d, 0xe9, 0x14, 0x10, 0x38, 0xf0, 0xd2, 0x22, 0x33, 0xfd, 0x15, 0xe2,
    0x23, 0x24, 0x47, 0x00, 0xfa, 0x11, 0xdd, 0x18, 0xf8, 0x18, 0x04, 0x25,
    0xe7, 0xf0, 0x05, 0xf6, 0x0e, 0x28, 0x06, 0x2d, 0x25, 0xe9, 0x19, 0xce,
    0x09, 0x20, 0x2f, 0x21, 0x3c, 0x05, 0xdf, 0xf9, 0x18, 0x20, 0x22, 0x1c,
    0x2a, 0xe4, 0xf6, 0x2d, 0x2b, 0x14, 0x24, 0x27, 0xfc, 0xdf, 0xec, 0xd0,
    0xf1, 0x3d, 0x06, 0x02, 0x00, 0x0d, 0xf5, 0xde, 0x03, 0xf3, 0x10, 0x0c,
    0xfe, 0x20, 0x2a, 0x2a, 0x1f, 0x28, 0x2f, 0x21, 0xf3, 0x21, 0x3b, 0x04,
    0x1e, 0x0e, 0x22, 0x2a, 0xe7, 0xef, 0xe5, 0x06, 0x2c, 0xef, 0x2f, 0x3d,
    0xff, 0x29, 0x25, 0x08, 0xf7, 0xe6, 0x01, 0x1e, 0xc1, 0xcf, 0x38, 0xd1,
    0xf9, 0xf9, 0xf7, 0xf6, 0x27, 0x39, 0xe3, 0x2f, 0xdb, 0x06, 0xe0, 0xba,
    0xe3, 0xd7, 0xf3, 0x0b, 0x0a, 0xf4, 0xf6, 0xc5, 0x1d, 0x24, 0x0e, 0xec,
    0x20, 0x0f, 0xe8, 0xe7, 0x14, 0xaf, 0x44, 0xea, 0xfd, 0xed, 0x15, 0x36,
    0xf9, 0x37, 0x2b, 0x17, 0xf6, 0x4c, 0x0d, 0xac, 0x07, 0x0f, 0xb4, 0xf2,
    0x00, 0x12, 0xd2, 0xe0, 0x26, 0xe7, 0x37, 0x2e, 0x20, 0x3c, 0x00, 0x0d,
    0xe4, 0x0f, 0x0a, 0xf9, 0x21, 0xe5, 0x1f, 0xdf, 0x23, 0x12, 0xef, 0x2d,
    0xe9, 0x46, 0x1a, 0xb1, 0xeb, 0xe9, 0xef, 0xdd, 0x07, 0x2a, 0xdf, 0x0b,
    0xd3, 0x09, 0x02, 0x2c, 0xf2, 0x06, 0x0b, 0x2d, 0x8f, 0xb5, 0x16, 0x15,
    0x14, 0xd6, 0xfe, 0xdb, 0xe8, 0xe0, 0x00, 0x10, 0xd7, 0x11, 0x04, 0xe6,
    0xaf, 0x1d, 0xb0, 0xfa, 0x38, 0xfc, 0x17, 0xe2, 0xba, 0xdf, 0xcb, 0x1e,
    0xf5, 0x2e, 0x11, 0x24, 0xd6, 0xb3, 0x0d, 0x20, 0xe1, 0x17, 0x16, 0x01,
    0xeb, 0x0d, 0x40, 0xeb, 0xbc, 0x00, 0x11, 0xf1, 0x16, 0xeb, 0xb5, 0x2b,
    0x05, 0xf7, 0x3c, 0xc1, 0xdd, 0xf6, 0xf5, 0x09, 0xf0, 0x1e, 0x07, 0x38,
    0xe9, 0xd0, 0x19, 0x0e, 0x01, 0x1d, 0x1c, 0xe7, 0x0a, 0x04, 0x30, 0xf4,
    0xdd, 0x5e, 0xdb, 0xde, 0x26, 0x0d, 0xf9, 0x08, 0x03, 0x2c, 0x13, 0xfd,
    0x31, 0xe5, 0x22, 0x51, 0xf5, 0x1b, 0x19, 0x18, 0xe7, 0x0d, 0x11, 0xef,
    0x03, 0x57, 0x0a, 0x06, 0xfc, 0x15, 0xfe, 0x48, 0xb3, 0x2d, 0x3a, 0xec,
    0xf3, 0x0b, 0x0b, 0x26, 0x17, 0xf2, 0xfd, 0x1e, 0xe1, 0x0f, 0xfe, 0xd4,
    0xfc, 0x16, 0xf0, 0x2a, 0x1d, 0x30, 0xe3, 0x03, 0x18, 0x15, 0x00, 0xf1,
    0xfa, 0xd6, 0x21, 0x05, 0xfe, 0xdf, 0x27, 0x0e, 0x03, 0x14, 0x0f, 0x10,
    0x25, 0xe9, 0xdf, 0x44, 0xda, 0x31, 0xfb, 0x05, 0xf5, 0x23, 0xf3, 0xd8,
    0x47, 0x57, 0xfa, 0x23, 0xd9, 0xe4, 0xce, 0xd5, 0xed, 0xfc, 0x3c, 0xd4,
    0x2b, 0x12, 0xe0, 0x15, 0x3f, 0xf2, 0x37, 0xfe, 0x01, 0xee, 0x09, 0x47,
    0x02, 0xf9, 0xf8, 0xd0, 0x0e, 0xcc, 0xef, 0x0d, 0x3d, 0x20, 0x01, 0xfa,
    0xfa, 0x1b, 0xef, 0xd2, 0xf0, 0xed, 0x0e, 0xc7, 0x04, 0x1a, 0xf3, 0x1d,
    0x11, 0x20, 0x2e, 0x0f, 0x08, 0x09, 0x06, 0x09, 0x06, 0xed, 0xdd, 0xdd,
    0x26, 0xe4, 0x18, 0xdc, 0xcf, 0xd3, 0xf2, 0xc1, 0x12, 0x08, 0x1d, 0x09,
    0x25, 0x12, 0xc4, 0x29, 0xe9, 0xf0, 0x25, 0x32, 0xdf, 0xc9, 0xd0, 0x32,
    0x35, 0x00, 0x06, 0x06, 0xf7, 0xf3, 0xee, 0x22, 0xfc, 0x3a, 0xfc, 0x02,
    0xcc, 0xe6, 0xde, 0xea, 0x1a, 0xfd, 0x37, 0x24, 0x1c, 0xe7, 0x2f, 0x41,
    0xcf, 0xdc, 0x07, 0xe0, 0xc7, 0xf8, 0xcb, 0x33, 0x1b, 0x0b, 0x1f, 0x24,
    0xfc, 0x12, 0x1d, 0x28, 0x0d, 0x2d, 0x04, 0x21, 0x0a, 0x0e, 0x0b, 0xd1,
    0x04, 0xfb, 0x09, 0xc8, 0xca, 0xf4, 0x1c, 0x02, 0xf9, 0xf0, 0xc9, 0xee,
    0x10, 0xce, 0x16, 0xd1, 0xf2, 0xd4, 0xe9, 0xf3, 0xdf, 0xef, 0xdd, 0x04,
    0x51, 0xff, 0xcb, 0x0a, 0x25, 0x48, 0x1f, 0xd4, 0x00, 0xd2, 0xc5, 0xfc,
    0x02, 0x04, 0xd6, 0xd9, 0x28, 0xec, 0xc2, 0x0f, 0xf4, 0xf1, 0xf9, 0xcc,
    0xf3, 0xd4, 0xe2, 0x08, 0xe2, 0xe3, 0x0d, 0x05, 0xfe, 0xb6, 0xea, 0xe6,
    0x14, 0x08, 0x27, 0x06, 0xea, 0xe6, 0x0c, 0xbf, 0xd2, 0x0f, 0xf3, 0x0a,
    0xfe, 0x1d, 0x1f, 0x28, 0x02, 0x2c, 0x09, 0x1f, 0xfb, 0x26, 0xf2, 0xe2,
    0xff, 0x0d, 0x2c, 0xda, 0xdb, 0x1f, 0xed, 0xe2, 0x2b, 0x18, 0xeb, 0xe6,
    0x33, 0x0b, 0xfa, 0x0e, 0xcf, 0x19, 0x10, 0x27, 0x20, 0x09, 0xe6, 0xe8,
    0x04, 0x02, 0xf6, 0x17, 0xe6, 0xe4, 0xf6, 0x37, 0x1f, 0x1b, 0xee, 0xe2,
    0xf2, 0x19, 0x1b, 0xdb, 0x21, 0xf8, 0xe0, 0xec, 0x15, 0xf9, 0x09, 0x04,
    0xdc, 0x04, 0x0d, 0x1f, 0xf0, 0x21, 0xf2, 0xf0, 0x37, 0xf3, 0x04, 0x45,
    0x10, 0x18, 0xef, 0xf2, 0xfe, 0x17, 0xf1, 0xf3, 0x07, 0x19, 0x04, 0xd2,
    0x43, 0x06, 0xc2, 0xce, 0x0f, 0x1c, 0xd5, 0xff, 0xe5, 0xfd, 0x3f, 0xe8,
    0xce, 0x19, 0x06, 0xd9, 0x3b, 0xef, 0x18, 0xf1, 0xe6, 0xee, 0xfa, 0x15,
    0x2f, 0x03, 0x10, 0xe7, 0x20, 0x07, 0x26, 0x0a, 0x21, 0x33, 0x27, 0x13,
    0x06, 0x23, 0xb0, 0xfb, 0xe3, 0x1d, 0x3b, 0xf6, 0x05, 0x1a, 0x1b, 0x13,
    0x08, 0xc6, 0xe6, 0xfd, 0xf5, 0xf1, 0x00, 0xb2, 0xee, 0x2c, 0xfc, 0x08,
    0x59, 0xc4, 0xe4, 0x04, 0x05, 0x25, 0x07, 0x0a, 0x23, 0xe2, 0x07, 0xc3,
    0xe6, 0xda, 0xf8, 0x1d, 0xfb, 0xff, 0xd5, 0xfa, 0x0b, 0xd0, 0x2e, 0xf7,
    0x06, 0xef, 0x21, 0xc2, 0x2a, 0xd4, 0x1a, 0xe1, 0x0f, 0xc0, 0x00, 0xbc,
    0x32, 0x14, 0x0b, 0x01, 0x02, 0xfa, 0xf7, 0xfc, 0xd7, 0x12, 0x0b, 0xba,
    0x46, 0x13, 0xf0, 0xe9, 0x1c, 0xeb, 0x47, 0xfa, 0xe1, 0xf0, 0x21, 0x07,
    0x03, 0x0f, 0xb6, 0x24, 0x69, 0x14, 0x02, 0x22, 0xe5, 0xf1, 0xf6, 0xec,
    0x25, 0xea, 0x0f, 0xff, 0x19, 0xf2, 0x2e, 0xf0, 0x0c, 0x1a, 0xeb, 0x17,
    0xfe, 0x01, 0xfd, 0x0c, 0x0d, 0x07, 0x06, 0xde, 0x22, 0xf7, 0xdb, 0x04,
    0xd9, 0xdc, 0x40, 0x22, 0xcb, 0xc6, 0x3a, 0xfe, 0xfb, 0xdf, 0x3f, 0xe6,
    0x40, 0x32, 0xf0, 0xf1, 0xfa, 0x02, 0x25, 0x22, 0xe3, 0x0c, 0xd9, 0x13,
    0x09, 0x2d, 0x14, 0x29, 0xe8, 0x0d, 0xf0, 0x40, 0xae, 0xe6, 0x3d, 0x0c,
    0xc5, 0xf4, 0x54, 0x19, 0x21, 0x10, 0xfb, 0x3a, 0x0a, 0x03, 0x04, 0xef,
    0x32, 0xcf, 0xde, 0xf7, 0xf0, 0xed, 0xda, 0xc9, 0xf7, 0x0a, 0xf6, 0x0e,
    0xf5, 0xdb, 0x12, 0x23, 0xa2, 0x08, 0xdd, 0x2b, 0xc4, 0xbb, 0x48, 0x18,
    0x32, 0x06, 0x0d, 0x6e, 0x18, 0x2a, 0x06, 0x40, 0xd6, 0xf3, 0x18, 0xfa,
    0xe2, 0xc9, 0xac, 0xfe, 0x27, 0x2a, 0x07, 0x06, 0xaa, 0x24, 0x11, 0xe1,
    0xc3, 0x33, 0xd1, 0xdd, 0xd8, 0xb7, 0x02, 0x13, 0x15, 0xfe, 0xde, 0x3d,
    0xd4, 0x44, 0xfb, 0x31, 0xec, 0xc0, 0xf4, 0x00, 0xe4, 0xfc, 0xdc, 0xf8,
    0x0c, 0xd0, 0x1e, 0xc2, 0xe1, 0xf3, 0x2f, 0xd9, 0x0e, 0x46, 0xc5, 0x0b,
    0xeb, 0xe6, 0x09, 0xd9, 0xf7, 0x1d, 0xdb, 0x1d, 0xed, 0x1b, 0x0e, 0xef,
    0xdd, 0x16, 0x16, 0x09, 0xc8, 0x26, 0x0c, 0x3a, 0x20, 0xec, 0xe3, 0xeb,
    0xdd, 0xf6, 0x2f, 0x13, 0xc0, 0x14, 0x04, 0x13, 0x1d, 0x14, 0xe8, 0x3b,
    0x21, 0x11, 0xe8, 0xf2, 0xe5, 0xe9, 0x07, 0x03, 0x02, 0x35, 0x18, 0xfe,
    0x38, 0x12, 0x32, 0x2d, 0xec, 0x07, 0x2e, 0x10, 0x49, 0x06, 0x32, 0xf5,
    0xfb, 0xce, 0x16, 0xff, 0xee, 0xd5, 0x3f, 0x0b, 0xed, 0x16, 0xca, 0x25,
    0xf0, 0x1a, 0x08, 0x0b, 0xf8, 0x18, 0x2c, 0x28, 0xf4, 0xfb, 0xf5, 0xea,
    0xe7, 0xda, 0xdb, 0xe9, 0x1b, 0x03, 0x43, 0xec, 0xf9, 0xfc, 0x1f, 0xd1,
    0x21, 0xb7, 0x19, 0x19, 0x3b, 0xe9, 0x00, 0x2d, 0xde, 0x06, 0x1b, 0x06,
    0xf1, 0xeb, 0x10, 0x08, 0x03, 0x0d, 0x18, 0x39, 0x0d, 0xf7, 0x00, 0x19,
    0x11, 0xfd, 0x48, 0xff, 0x33, 0xf8, 0xf2, 0xc5, 0x2b, 0xd8, 0xdf, 0x13,
    0x0f, 0xc3, 0xec, 0xe0, 0x17, 0xf8, 0x14, 0xf4, 0xe4, 0x10, 0xcf, 0xef,
    0x21, 0xe1, 0xfa, 0x35, 0x1e, 0xd3, 0xfb, 0x00, 0x0d, 0x10, 0x14, 0x23,
    0xfb, 0xdb, 0x13, 0xd1, 0x2c, 0x1e, 0x32, 0xf0, 0xfb, 0x0e, 0xe6, 0x04,
    0x00, 0x0e, 0x01, 0x0f, 0xc6, 0x1a, 0xd1, 0xd5, 0x0b, 0xf4, 0xd7, 0x02,
    0x10, 0x03, 0x07, 0x15, 0x09, 0x1c, 0x12, 0xe0, 0x14, 0xee, 0x21, 0xf6,
    0x15, 0x22, 0xf6, 0x18, 0x08, 0xfd, 0xe9, 0x0e, 0xd3, 0x16, 0x36, 0x1a,
    0xd2, 0x2f, 0xf5, 0xf0, 0x29, 0xfa, 0x1b, 0x37, 0x12, 0xe4, 0x1a, 0xd5,
    0x11, 0x0d, 0x04, 0x1a, 0x36, 0xf3, 0xf7, 0x12, 0x12, 0x17, 0x43, 0x1a,
    0x23, 0xf8, 0x20, 0xed, 0xef, 0xfd, 0xf5, 0xcc, 0x1f, 0x32, 0xd9, 0xf7,
    0xfe, 0x39, 0x1c, 0x1a, 0xf4, 0xff, 0x15, 0x0f, 0x35, 0xdf, 0x0f, 0x23,
    0x31, 0x12, 0xe5, 0xd3, 0xf1, 0xd0, 0x13, 0x37, 0x0e, 0x0a, 0x00, 0x3f,
    0x39, 0xf5, 0xe8, 0x1e, 0x11, 0x3d, 0x0b, 0xfb, 0xe9, 0xf0, 0xee, 0x10,
    0xf3, 0xee, 0xf2, 0x02, 0x4f, 0xdf, 0x23, 0xfe, 0xe7, 0xe3, 0x42, 0x20,
    0xdf, 0xcc, 0xf1, 0xf8, 0x1c, 0xfe, 0x13, 0x47, 0xf6, 0x36, 0x4b, 0xf7,
    0xa5, 0x12, 0x2c, 0xc6, 0x05, 0x06, 0xb8, 0x41, 0xcb, 0xe8, 0x34, 0xe4,
    0x46, 0x0b, 0x2b, 0x16, 0x2a, 0xf1, 0x2b, 0x14, 0xb5, 0xbc, 0x09, 0x26,
    0x3d, 0xc3, 0xfd, 0x64, 0xff, 0x23, 0x37, 0x09, 0xf9, 0x2c, 0xf1, 0xdb,
    0xd8, 0xfe, 0xe8, 0x33, 0xd0, 0xda, 0xf9, 0xf8, 0xf2, 0x30, 0xf4, 0x19,
    0xdd, 0xfa, 0x13, 0xd4, 0xd7, 0x0a, 0x1e, 0x0c, 0x00, 0xe6, 0x2c, 0x50,
    0x17, 0x03, 0x46, 0x0c, 0xef, 0x39, 0xe3, 0xe9, 0x28, 0x10, 0xcf, 0x39,
    0xf2, 0x28, 0xe5, 0x07, 0xd0, 0xf2, 0x0a, 0x04, 0xe4, 0x0c, 0x1f, 0x12,
    0xe5, 0xe3, 0x3b, 0x07, 0x39, 0xd0, 0xfd, 0x17, 0x01, 0xf4, 0x1b, 0xe8,
    0xd7, 0x20, 0x1f, 0xc9, 0x0c, 0x1a, 0xc0, 0x2e, 0xf8, 0x27, 0x0f, 0x46,
    0x0f, 0x26, 0xe6, 0x03, 0x0d, 0x12, 0x45, 0x2d, 0x02, 0xd2, 0xe9, 0x3c,
    0x1f, 0xe8, 0x2c, 0x24, 0xf0, 0x21, 0x30, 0xf4, 0xbd, 0x28, 0x33, 0xe1,
    0xe8, 0x39, 0xff, 0x26, 0xda, 0x03, 0xef, 0x1d, 0x11, 0xf7, 0x35, 0x11,
    0x17, 0x0e, 0x1c, 0x3e, 0x15, 0xfb, 0x60, 0xf0, 0x11, 0xff, 0x16, 0xf7,
    0xde, 0x39, 0x3c, 0x23, 0xee, 0x19, 0x46, 0xed, 0x29, 0xf1, 0xf9, 0x34,
    0xcf, 0xe5, 0x3b, 0x1a, 0x22, 0x0e, 0xfc, 0x1c, 0x1a, 0xf9, 0x0f, 0xca,
    0x2e, 0x10, 0x2e, 0x19, 0x18, 0xf3, 0xde, 0x08, 0x10, 0x05, 0xe0, 0xec,
    0x3c, 0x14, 0x19, 0x12, 0x2c, 0x00, 0xda, 0xd0, 0xf4, 0x30, 0x11, 0x0f,
    0x14, 0x1f, 0x36, 0xfc, 0xef, 0x2e, 0x20, 0x00, 0x13, 0xe8, 0x35, 0x1f,
    0xf3, 0xdc, 0xf6, 0x17, 0x38, 0x14, 0xf7, 0xea, 0x20, 0x0a, 0xf1, 0xd5,
    0xfc, 0xeb, 0xdf, 0xf4, 0xdc, 0xec, 0xfd, 0x11, 0xe9, 0x08, 0x03, 0x27,
    0x13, 0xf8, 0x04, 0xf1, 0xed, 0xff, 0x33, 0xe8, 0xf1, 0x20, 0xf1, 0x22,
    0xfa, 0x1e, 0xd0, 0xe2, 0x2d, 0xe1, 0xd2, 0x1c, 0xee, 0xfa, 0xeb, 0xc1,
    0xea, 0x23, 0xe5, 0xf8, 0xee, 0xfc, 0x4d, 0x31, 0xe1, 0xfe, 0x0b, 0x2a,
    0x1b, 0xfa, 0x59, 0xfe, 0x13, 0x15, 0x09, 0xfc, 0x3b, 0xf2, 0xce, 0x17,
    0x37, 0x0d, 0x18, 0x2d, 0x26, 0x02, 0xfb, 0xf3, 0x36, 0x2c, 0x09, 0x26,
    0x0b, 0xd9, 0x29, 0x16, 0xd6, 0x24, 0x0a, 0x0c, 0x05, 0xe4, 0x19, 0x02,
    0xf3, 0x13, 0xd6, 0x0a, 0x1f, 0x43, 0xbc, 0xf1, 0x1d, 0x15, 0x21, 0xee,
    0xd0, 0x19, 0x0e, 0xda, 0x11, 0x29, 0xf9, 0x00, 0x1e, 0x11, 0x1a, 0xff,
    0xd3, 0x1a, 0x13, 0x1e, 0xf3, 0xd8, 0x45, 0x0b, 0x0a, 0x0e, 0xf7, 0x25,
    0x0b, 0x37, 0xdb, 0x04, 0x1a, 0xff, 0x10, 0x2c, 0x1b, 0x16, 0xe1, 0xc1,
    0xfd, 0x33, 0x12, 0xde, 0x34, 0xf4, 0x43, 0x1e, 0xfe, 0x07, 0xd8, 0xe6,
    0xf6, 0x16, 0x37, 0x0a, 0x31, 0xfc, 0x14, 0x08, 0x07, 0x25, 0xd9, 0x33,
    0x07, 0x19, 0x16, 0xff, 0x05, 0x01, 0x2c, 0xf8, 0x29, 0x20, 0x04, 0x38,
    0x1e, 0xe3, 0xfc, 0x2e, 0xf3, 0x2e, 0x11, 0x4d, 0xe1, 0x11, 0xfd, 0xf1,
    0x14, 0x06, 0x45, 0x01, 0x26, 0x29, 0x25, 0x07, 0xdd, 0xef, 0x17, 0x3f,
    0x11, 0x08, 0xe5, 0x2a, 0x13, 0x3d, 0xfa, 0x40, 0x28, 0x0f, 0x1e, 0xf9,
    0xef, 0x19, 0xea, 0x28, 0x1e, 0x30, 0x05, 0xdf, 0xdf, 0x26, 0x21, 0xee,
    0x07, 0xdd, 0xb0, 0x1b, 0x1a, 0xd0, 0x25, 0x0d, 0xea, 0x0e, 0xf4, 0xcb,
    0x37, 0x5c, 0xd9, 0x25, 0x09, 0xdc, 0xfd, 0x1a, 0x40, 0x27, 0xdf, 0x20,
    0x1e, 0xf3, 0x07, 0xfd, 0xe0, 0x1c, 0xf1, 0x13, 0x1b, 0xd4, 0x1a, 0x05,
    0x2a, 0x18, 0x0e, 0xda, 0x05, 0x1d, 0x28, 0xf7, 0x0b, 0x11, 0xf3, 0x29,
    0x5a, 0xee, 0x14, 0x08, 0x1b, 0xe8, 0xd4, 0xe3, 0x3f, 0x17, 0xc2, 0xf9,
    0xc5, 0x2a, 0x10, 0xe0, 0xbd, 0xe2, 0xc8, 0xf9, 0xbf, 0x27, 0xf0, 0xf4,
    0xf6, 0xd9, 0x29, 0x1d, 0xea, 0xde, 0xe4, 0xde, 0x50, 0xf5, 0x10, 0xce,
    0x2f, 0xe3, 0xe1, 0x27, 0x08, 0xd8, 0xe5, 0xd9, 0xdc, 0x30, 0x0a, 0xd0,
    0xfc, 0x20, 0xc6, 0x56, 0xfa, 0xef, 0x2f, 0x02, 0xae, 0x04, 0xf4, 0xdb,
    0x17, 0xd8, 0x11, 0xcf, 0x31, 0x40, 0x22, 0x00, 0xe4, 0x2e, 0xf1, 0xe0,
    0x05, 0xf3, 0xe8, 0xdd, 0xfc, 0x2e, 0x0d, 0xf0, 0x37, 0xec, 0xf7, 0x25,
    0xf0, 0xf6, 0x24, 0x25, 0x14, 0xe3, 0xe1, 0x1c, 0x48, 0x21, 0xfa, 0x0d,
    0xde, 0x39, 0x04, 0x29, 0x15, 0x26, 0xf6, 0xe1, 0x09, 0x1e, 0x08, 0x2e,
    0xf2, 0x1e, 0x35, 0xe7, 0x1e, 0x04, 0xe7, 0x23, 0xf7, 0xe0, 0x08, 0x15,
    0xda, 0x2d, 0xeb, 0xd2, 0x52, 0x2e, 0xf3, 0xf9, 0x0f, 0xea, 0xe7, 0x02,
    0x0e, 0x46, 0x2b, 0x22, 0xcf, 0xe2, 0xee, 0x18, 0xfb, 0x2f, 0x06, 0x12,
    0x33, 0x29, 0xce, 0x37, 0x22, 0x07, 0x2e, 0x30, 0xe9, 0x00, 0xc1, 0xf0,
    0x42, 0x0a, 0x23, 0x0e, 0x21, 0x25, 0x23, 0x4d, 0xc8, 0x1c, 0x01, 0x20,
    0xe7, 0x16, 0x04, 0x00, 0xfc, 0xfd, 0xd1, 0x00, 0x30, 0xef, 0xde, 0xf7,
    0x1e, 0x07, 0x30, 0x28, 0xf2, 0x21, 0x3a, 0x0f, 0x2c, 0x25, 0x2e, 0x16,
    0xf9, 0x24, 0x29, 0xdb, 0xe4, 0xfa, 0x11, 0xdf, 0x34, 0x1b, 0x0b, 0xde,
    0x01, 0xf4, 0xf5, 0xee, 0x16, 0xf2, 0xfd, 0x18, 0x05, 0xc8, 0xf3, 0xdf,
    0x02, 0xf7, 0x00, 0xdf, 0x2c, 0x1b, 0x30, 0xe9, 0x50, 0x0f, 0x56, 0xe3,
    0xe5, 0xe1, 0xca, 0xe7, 0x13, 0xe1, 0xe9, 0x11, 0xd0, 0x0a, 0xc6, 0x12,
    0xcc, 0x0f, 0xc7, 0x31, 0xda, 0x02, 0xd3, 0x1e, 0xc9, 0x0f, 0x35, 0xdd,
    0x2b, 0x0f, 0x02, 0x01, 0x0e, 0xfe, 0x1f, 0xe8, 0xe6, 0x17, 0xee, 0x06,
    0x10, 0xd9, 0x18, 0x0d, 0x2b, 0x3f, 0xf1, 0x28, 0xb0, 0x1c, 0x1b, 0x61,
    0xc6, 0xd6, 0x06, 0xc9, 0xd0, 0x12, 0xf2, 0xea, 0x33, 0xd8, 0x1c, 0xce,
    0x1e, 0x46, 0x23, 0xcc, 0x24, 0x32, 0x2f, 0xd9, 0x07, 0x3c, 0x1e, 0x12,
    0x0f, 0x19, 0xcd, 0x2a, 0x26, 0x0d, 0x0c, 0x37, 0xe4, 0x0b, 0xeb, 0x2c,
    0x31, 0xe6, 0x13, 0xd3, 0x2e, 0xfc, 0x38, 0xb2, 0x01, 0x24, 0x26, 0xf0,
    0xf8, 0x0e, 0x0b, 0xeb, 0x15, 0x0a, 0x14, 0xf0, 0x04, 0x4a, 0x2c, 0xcc,
    0xe6, 0x28, 0xc8, 0xfb, 0xfa, 0x20, 0x23, 0x22, 0xff, 0xf7, 0xfd, 0xf2,
    0x05, 0x18, 0x16, 0xd6, 0x2c, 0x31, 0x20, 0x3a, 0xe7, 0x15, 0x31, 0x30,
    0xed, 0x24, 0xea, 0xe1, 0xf4, 0x0d, 0xe1, 0xee, 0x00, 0x1c, 0xc9, 0xf7,
    0xf1, 0xe3, 0x24, 0xf8, 0x00, 0x10, 0x0c, 0x09, 0x0b, 0x07, 0xe1, 0x1c,
    0x2f, 0xd6, 0x3c, 0x06, 0xe8, 0xe7, 0x1d, 0xcf, 0xd8, 0xdc, 0x00, 0xda,
    0xf2, 0xe6, 0x05, 0xef, 0xea, 0xec, 0xbc, 0x15, 0xfd, 0xff, 0xf3, 0x0b,
    0x19, 0x1b, 0x04, 0xca, 0xf6, 0x16, 0xda, 0xc4, 0x0a, 0x24, 0x05, 0x2b,
    0x0f, 0xfb, 0xf1, 0x0b, 0xed, 0x0e, 0x0f, 0x20, 0x02, 0xdb, 0x2f, 0x0f,
    0x1d, 0x03, 0xfd, 0xe1, 0xf5, 0xff, 0x02, 0x1d, 0xe3, 0xf7, 0xf7, 0xe6,
    0xfe, 0x11, 0x14, 0xe8, 0x10, 0xf4, 0x46, 0x01, 0x14, 0x21, 0x03, 0x2c,
    0xe9, 0xc0, 0x2a, 0x09, 0x2d, 0xfe, 0x0e, 0xf5, 0x25, 0x0b, 0x0b, 0x3c,
    0xe2, 0x12, 0x14, 0xf2, 0xdc, 0x29, 0xf1, 0x21, 0x2d, 0xfb, 0xe9, 0x06,
    0x03, 0x22, 0x37, 0x08, 0x14, 0x07, 0x37, 0xe4, 0x14, 0xd8, 0x07, 0xd6,
    0xfc, 0x0e, 0x1f, 0xf9, 0xda, 0x21, 0x1a, 0x27, 0xdf, 0x1c, 0xfe, 0xd9,
    0x0b, 0xdb, 0xbd, 0x24, 0x3a, 0xfe, 0xe0, 0xc9, 0x16, 0x24, 0xce, 0xe6,
    0x32, 0x03, 0x3d, 0x1c, 0x28, 0x21, 0xf5, 0xfb, 0xe8, 0xfc, 0xf7, 0xfb,
    0xf1, 0x1d, 0xea, 0x20, 0xd6, 0x11, 0x29, 0x10, 0x2d, 0xe5, 0x18, 0x09,
    0xf9, 0x20, 0xf2, 0xcd, 0xb9, 0x18, 0xd4, 0xf8, 0x09, 0xfc, 0xe3, 0xf1,
    0xf8, 0x00, 0x03, 0x20, 0x26, 0x26, 0x23, 0xe3, 0x1b, 0x24, 0xeb, 0xc2,
    0x07, 0x30, 0x0d, 0xfe, 0x24, 0x0e, 0xfe, 0xf1, 0xef, 0x05, 0x01, 0xf4,
    0xf2, 0x04, 0xed, 0x0d, 0x0d, 0x07, 0x08, 0xfb, 0x29, 0xf4, 0x19, 0xf1,
    0x05, 0x39, 0xf4, 0x1c, 0x0c, 0x11, 0xe4, 0xfb, 0xed, 0xc6, 0x20, 0xe5,
    0x36, 0xe3, 0xfd, 0xe8, 0xf6, 0x05, 0x1b, 0xf5, 0xff, 0x14, 0x3d, 0x34,
    0xea, 0x15, 0xce, 0xec, 0xd7, 0xfc, 0x37, 0xfd, 0x10, 0xf2, 0xfd, 0x27,
    0x31, 0x1f, 0xf9, 0xf5, 0x17, 0xfd, 0x03, 0xf7, 0x0e, 0x17, 0x01, 0xc8,
    0x2f, 0x39, 0xe7, 0xde, 0x13, 0xf6, 0x4c, 0x25, 0xfa, 0x2e, 0xda, 0xdb,
    0x1c, 0xdd, 0x03, 0xd4, 0x10, 0xf6, 0x07, 0xdd, 0x18, 0x28, 0xf0, 0x2c,
    0xe7, 0xbd, 0xec, 0xf1, 0xfc, 0xc4, 0x0a, 0xef, 0x3f, 0x28, 0xe5, 0xc0,
    0x35, 0x03, 0x2a, 0x06, 0x23, 0x02, 0x00, 0x1a, 0x19, 0xe5, 0x29, 0xef,
    0x12, 0x37, 0x0e, 0xeb, 0x17, 0x24, 0xbe, 0x31, 0xec, 0xd2, 0x15, 0xea,
    0x0a, 0xf5, 0x1b, 0x06, 0xf1, 0xfc, 0xf5, 0xe7, 0x3b, 0x00, 0x56, 0xda,
    0x08, 0x14, 0xd2, 0xdb, 0x02, 0xcb, 0x36, 0x0f, 0xdf, 0xe2, 0xe0, 0xfe,
    0xf5, 0x37, 0x13, 0x28, 0xf9, 0x10, 0x21, 0xe1, 0xec, 0xd8, 0x1d, 0xb6,
    0xfd, 0xb5, 0xfc, 0xd8, 0x4c, 0xf0, 0x46, 0xfd, 0xe0, 0xf9, 0x10, 0x05,
    0x08, 0x36, 0x17, 0xd4, 0x1e, 0xfd, 0xcf, 0xec, 0x06, 0x02, 0x07, 0x23,
    0x1b, 0xfe, 0x0d, 0x49, 0x38, 0xbd, 0xdf, 0xf9, 0x1f, 0x0d, 0xee, 0xdc,
    0xdf, 0x31, 0x23, 0x27, 0x15, 0x42, 0x04, 0x03, 0x33, 0x27, 0x1a, 0x13,
    0xfd, 0x3f, 0x08, 0x18, 0x1e, 0xe6, 0x00, 0xee, 0x04, 0xe0, 0xe2, 0x21,
    0xeb, 0x31, 0x38, 0xd0, 0x3e, 0x28, 0x05, 0x15, 0x19, 0xdb, 0x17, 0xf7,
    0xe5, 0x3e, 0x3b, 0x06, 0x22, 0x26, 0xf0, 0x0b, 0xd8, 0xd8, 0xf7, 0x08,
    0x06, 0x21, 0x02, 0xfe, 0xd6, 0x29, 0xe6, 0xfd, 0x23, 0x2c, 0xed, 0x0a,
    0xc7, 0xd7, 0xfc, 0xed, 0xe8, 0xfa, 0x13, 0xdf, 0x01, 0xbf, 0x0e, 0x27,
    0xf9, 0x3b, 0xf9, 0xf5, 0x1c, 0x28, 0xf8, 0x12, 0x11, 0xfa, 0x2b, 0xed,
    0xd3, 0x2e, 0xf2, 0xff, 0xe5, 0x11, 0x35, 0xf7, 0x1c, 0xd6, 0x13, 0x33,
    0x1c, 0x0f, 0x02, 0x0a, 0xd9, 0x2d, 0x18, 0xf9, 0x15, 0x39, 0xcc, 0x0b,
    0x37, 0x03, 0x1d, 0xf8, 0x22, 0xe4, 0x3c, 0x02, 0xe7, 0x04, 0xfe, 0x1c,
    0xec, 0xf3, 0x30, 0x00, 0x38, 0xe3, 0x13, 0x20, 0x08, 0x40, 0xe5, 0xe6,
    0x2c, 0x1e, 0x30, 0x3b, 0xeb, 0xf9, 0xdd, 0xdf, 0x07, 0x15, 0x32, 0x23,
    0x05, 0xe7, 0x21, 0x29, 0xe6, 0x34, 0xf3, 0x02, 0x03, 0xed, 0x38, 0x18,
    0xf0, 0xe9, 0x04, 0x44, 0xf9, 0x12, 0xee, 0xd4, 0x30, 0x0c, 0x07, 0xdc,
    0x31, 0x0a, 0xf0, 0xca, 0x2d, 0xfb, 0x01, 0x0b, 0x08, 0xe2, 0x0f, 0x02,
    0xe5, 0x27, 0x2e, 0x02, 0x10, 0xc6, 0x2d, 0x45, 0x27, 0xee, 0x08, 0x17,
    0xfe, 0x2f, 0x12, 0xae, 0xf8, 0x11, 0xe9, 0x2a, 0x10, 0x1f, 0xf5, 0xdc,
    0x2a, 0xfa, 0x00, 0x12, 0xf1, 0x02, 0xf4, 0xec, 0xcb, 0x08, 0x1f, 0xfa,
    0x05, 0xf3, 0xf0, 0xee, 0xfc, 0xed, 0x2c, 0x15, 0xd1, 0x1c, 0x00, 0xc6,
    0x37, 0x0e, 0xfd, 0x0e, 0xdf, 0xf4, 0xe9, 0xef, 0x03, 0xfe, 0xe9, 0xcb,
    0xd0, 0xef, 0xd9, 0x06, 0xc3, 0x17, 0xd4, 0xe8, 0x1a, 0xdc, 0xd1, 0xd1,
    0xf1, 0xce, 0xf6, 0xde, 0xdb, 0xcc, 0xfb, 0x1c, 0xd7, 0xed, 0xe5, 0xbf,
    0xf9, 0xff, 0xeb, 0x38, 0x03, 0x31, 0x17, 0x21, 0x12, 0xe6, 0xd9, 0x24,
    0xd7, 0x44, 0x0d, 0x20, 0xcd, 0xe8, 0x2d, 0x2f, 0x2b, 0xe0, 0x27, 0x13,
    0xfa, 0x13, 0x00, 0x31, 0x00, 0xed, 0x26, 0x2c, 0x22, 0x3c, 0xb9, 0xf8,
    0x02, 0xd6, 0xe9, 0x31, 0x1e, 0xe1, 0x59, 0xd6, 0xdb, 0x0a, 0x27, 0x1c,
    0xf0, 0x28, 0x3f, 0x13, 0xe0, 0xcd, 0xe7, 0x1d, 0x10, 0x30, 0x12, 0xfc,
    0xe9, 0xd1, 0x1f, 0xe6, 0xe3, 0x14, 0xd0, 0xe9, 0x1e, 0x0b, 0x0d, 0x3a,
    0x0a, 0x09, 0x08, 0x08, 0xda, 0x08, 0x2a, 0x24, 0x0d, 0x21, 0xff, 0x37,
    0xf1, 0x11, 0x0d, 0xfb, 0x37, 0x32, 0x0b, 0xfb, 0xec, 0x03, 0x0c, 0x25,
    0xe2, 0xd3, 0xf7, 0xc6, 0x2d, 0x21, 0x14, 0x1f, 0xc1, 0x20, 0x41, 0x37,
    0xed, 0xed, 0x24, 0x21, 0xe7, 0xcf, 0xef, 0x2e, 0x0d, 0xfb, 0x0b, 0x12,
    0xef, 0x31, 0xd9, 0xe5, 0xf6, 0x24, 0x2a, 0xfa, 0xfb, 0x24, 0x0c, 0xc6,
    0x25, 0x02, 0xd1, 0x1f, 0xbb, 0xde, 0x15, 0xeb, 0xe1, 0xe1, 0xee, 0xf8,
    0xe7, 0x0d, 0xef, 0x10, 0xce, 0xd8, 0x1e, 0x14, 0xf8, 0xec, 0x0d, 0xef,
    0x2c, 0x1b, 0xe1, 0xf2, 0xf4, 0x08, 0x1d, 0xf0, 0xf0, 0xed, 0x15, 0x12,
    0x0f, 0x11, 0x08, 0xc1, 0xf5, 0x3e, 0x07, 0xe6, 0xf0, 0x24, 0x2a, 0x18,
    0xf2, 0x02, 0xd2, 0xf1, 0x0c, 0xfb, 0xe9, 0xe1, 0x21, 0xd3, 0x0c, 0xef,
    0xd6, 0xfc, 0xfb, 0x01, 0xd9, 0x08, 0xbc, 0xc6, 0xcd, 0x27, 0x00, 0xe0,
    0xad, 0xe5, 0x0f, 0xf5, 0x12, 0xe5, 0xd9, 0xaf, 0x0e, 0x01, 0xb7, 0x02,
    0xe3, 0x02, 0x36, 0xbf, 0xfd, 0xd8, 0x07, 0xf7, 0x4c, 0x44, 0x0e, 0x04,
    0xcb, 0x12, 0xe6, 0xe7, 0x03, 0x29, 0x39, 0xd5, 0x30, 0x06, 0xe2, 0xd9,
    0x3b, 0x21, 0x45, 0xeb, 0xc3, 0x33, 0xe5, 0xf0, 0x24, 0xe7, 0x09, 0x2d,
    0xfb, 0xf5, 0xfb, 0xfd, 0x0d, 0x0c, 0x48, 0x26, 0xb9, 0x17, 0xe5, 0xe0,
    0xf4, 0x23, 0x04, 0xd6, 0xfb, 0x28, 0x0a, 0x05, 0xee, 0xe1, 0xf1, 0xfa,
    0xf7, 0x28, 0x0b, 0xd4, 0x0e, 0xcd, 0x2f, 0x33, 0xe8, 0x15, 0xec, 0x29,
    0x2f, 0x3f, 0x48, 0xf0, 0xdf, 0xf5, 0x31, 0xd1, 0x0f, 0x0a, 0x03, 0xb8,
    0x1b, 0x04, 0xd2, 0xf1, 0x0c, 0x10, 0x09, 0xb9, 0xce, 0x35, 0xb0, 0x13,
    0x19, 0xb1, 0x18, 0x0a, 0xff, 0xc0, 0x13, 0xf6, 0x0e, 0x26, 0x38, 0x1f,
    0xca, 0x11, 0x36, 0xe3, 0x23, 0x2b, 0xf5, 0xcc, 0x2e, 0x14, 0xeb, 0x19,
    0x1f, 0x30, 0xf4, 0xb4, 0xe5, 0x41, 0xd7, 0xeb, 0x3a, 0xff, 0x2d, 0x0e,
    0x0d, 0xd0, 0x0a, 0xf1, 0x10, 0x0c, 0x64, 0x27, 0x10, 0xde, 0x1a, 0x16,
    0x33, 0x08, 0xce, 0xfe, 0x00, 0x28, 0xc3, 0x09, 0xf7, 0xdd, 0x12, 0xce,
    0xeb, 0x23, 0xe2, 0x06, 0xef, 0xad, 0x31, 0x49, 0xf1, 0xd0, 0x16, 0x1e,
    0x03, 0xd6, 0x13, 0x09, 0xfa, 0x02, 0x25, 0x11, 0xf1, 0xff, 0xc2, 0x0f,
    0xde, 0x29, 0xb4, 0xd9, 0x0b, 0xd7, 0xe1, 0xe8, 0xec, 0x05, 0xc4, 0xc4,
    0x34, 0xe5, 0x3b, 0x03, 0x22, 0x14, 0x07, 0x02, 0x17, 0xef, 0xf9, 0x18,
    0xd1, 0xfc, 0xf6, 0xe4, 0x4e, 0x2b, 0x1d, 0xfc, 0x1e, 0x43, 0xc5, 0x1a,
    0x16, 0x17, 0x01, 0xd3, 0x03, 0x43, 0xde, 0x18, 0x0e, 0x02, 0x37, 0x36,
    0xed, 0x2e, 0xfa, 0x2c, 0x22, 0x48, 0xbb, 0xf6, 0x12, 0x42, 0x25, 0xcd,
    0xc2, 0xed, 0x6e, 0x03, 0xf8, 0x13, 0xe4, 0x33, 0x2e, 0x36, 0x1c, 0x46,
    0x01, 0x1d, 0x03, 0x4c, 0x1a, 0x21, 0xd0, 0xf4, 0x53, 0x02, 0xfa, 0xe6,
    0x2b, 0x12, 0x90, 0xe5, 0xd7, 0x31, 0x2b, 0xf6, 0xe9, 0xd6, 0x46, 0x09,
    0x16, 0x23, 0x1d, 0x12, 0xec, 0xe4, 0xd5, 0x03, 0x1f, 0x12, 0xe9, 0x36,
    0x27, 0x12, 0xb2, 0x00, 0x46, 0xf7, 0x0c, 0x2d, 0x3a, 0x10, 0x23, 0xe8,
    0xfe, 0x0d, 0x15, 0xef, 0x31, 0x07, 0x24, 0x0e, 0x1e, 0xee, 0xf5, 0xf8,
    0x10, 0x00, 0xdf, 0xea, 0x0b, 0xfd, 0xf3, 0xf4, 0x17, 0xf5, 0xc3, 0x26,
    0x0f, 0xd9, 0xfb, 0x1c, 0x1b, 0x28, 0x2f, 0xd2, 0x1e, 0x24, 0xfc, 0x1f,
    0xfb, 0x1f, 0xfa, 0xdd, 0x21, 0xf3, 0x1c, 0x01, 0x1b, 0xf1, 0xd4, 0x10,
    0x13, 0xea, 0xe8, 0xe3, 0xd3, 0xec, 0x03, 0xc8, 0xfc, 0xfa, 0xe4, 0xd9,
    0xd8, 0x2b, 0xee, 0xeb, 0xcc, 0xd3, 0xd0, 0x12, 0xdd, 0x08, 0xe1, 0x1c,
    0xf9, 0x17, 0xf7, 0xe3, 0xf3, 0xe7, 0xd0, 0xf4, 0xcb, 0x00, 0x12, 0xf6,
    0xca, 0xce, 0xfe, 0xd6, 0x0f, 0x02, 0xd1, 0x12, 0x0f, 0x07, 0x05, 0x12,
    0x12, 0x0e, 0xd4, 0xf9, 0xe4, 0x2e, 0xca, 0xe2, 0x01, 0xe8, 0x1e, 0xde,
    0xcd, 0xe5, 0xfa, 0xd9, 0xd6, 0xd8, 0x1e, 0xff, 0xbf, 0x0c, 0x23, 0x1f,
    0x06, 0x23, 0xea, 0xfd, 0xbd, 0xc0, 0x11, 0xd0, 0x00, 0xe9, 0xd4, 0x21,
    0xdc, 0x0f, 0x1f, 0x13, 0xd5, 0xd3, 0x0b, 0x11, 0xc4, 0x08, 0xfd, 0x0e,
    0xfe, 0xd1, 0x00, 0xd5, 0xd8, 0xf3, 0xd5, 0x14, 0xe6, 0x00, 0xff, 0x12,
    0x34, 0x17, 0x08, 0x14, 0xe7, 0xe7, 0xf0, 0xd2, 0x09, 0x1e, 0x0e, 0xd2,
    0x1c, 0x14, 0xec, 0xe3, 0x14, 0xe7, 0x19, 0x33, 0xe0, 0xf9, 0xf9, 0x27,
    0xf1, 0xf4, 0x01, 0xda, 0x14, 0xe5, 0xd7, 0xdb, 0x18, 0x0c, 0xff, 0xf8,
    0xe8, 0xf2, 0x1e, 0x11, 0xdd, 0x0e, 0xed, 0x19, 0xfd, 0x12, 0xde, 0x0f,
    0x27, 0x1c, 0xe0, 0x30, 0xce, 0xf3, 0xd2, 0x12, 0x32, 0x1a, 0xf7, 0x08,
    0x42, 0x14, 0x2a, 0xed, 0x2c, 0x22, 0x22, 0x25, 0x0c, 0x1e, 0x27, 0x16,
    0xc8, 0x0b, 0x41, 0xf6, 0xff, 0x43, 0x1f, 0xf9, 0xe9, 0x1d, 0x0b, 0x25,
    0xe3, 0x12, 0x25, 0x2a, 0x3c, 0x29, 0x2a, 0x2f, 0x49, 0xe5, 0xe9, 0x1c,
    0x0e, 0x11, 0xd9, 0x0a, 0xf4, 0x01, 0xde, 0xf8, 0xf6, 0xe4, 0xfa, 0xbf,
    0xe0, 0x45, 0xe3, 0xcd, 0x0c, 0x13, 0x0e, 0x2b, 0x13, 0xf4, 0xe0, 0x0c,
    0x34, 0x1b, 0xf5, 0x0d, 0x1d, 0xeb, 0xfc, 0xd7, 0x40, 0x1b, 0x28, 0x01,
    0xf6, 0xee, 0xf2, 0xec, 0x23, 0x1b, 0x45, 0xef, 0xdf, 0x1c, 0x12, 0x09,
    0x1b, 0x2e, 0x27, 0xeb, 0xd0, 0xd2, 0xd4, 0xe4, 0xe2, 0xfa, 0xf1, 0x30,
    0x2e, 0xc8, 0xf6, 0x13, 0x06, 0x11, 0x11, 0xe6, 0xf6, 0x0c, 0xf5, 0xfd,
    0xe2, 0xd5, 0x18, 0xeb, 0xef, 0x4d, 0x0f, 0xcb, 0x2d, 0xd5, 0xff, 0x42,
    0xc9, 0x1e, 0x30, 0xdf, 0x20, 0xe3, 0xf2, 0x3b, 0x26, 0xdf, 0x0e, 0xf2,
    0x2b, 0x07, 0xf1, 0x20, 0xff, 0x0b, 0xf4, 0x0a, 0x10, 0x01, 0x17, 0x16,
    0xed, 0xef, 0xdb, 0xdc, 0x39, 0xf2, 0xf2, 0xff, 0xe4, 0xd2, 0xd9, 0xe2,
    0xff, 0xd6, 0x18, 0x26, 0x1e, 0xec, 0x14, 0xf2, 0xf1, 0xdb, 0xe6, 0x31,
    0x1f, 0x05, 0x31, 0x07, 0x42, 0x09, 0xce, 0xdc, 0xe6, 0x28, 0x07, 0x03,
    0xcc, 0xf3, 0xd8, 0x05, 0x06, 0x37, 0xf1, 0x04, 0x20, 0xde, 0x3b, 0x26,
    0xce, 0x13, 0x1a, 0x22, 0xf2, 0xeb, 0xda, 0x1d, 0x32, 0xf6, 0xea, 0x11,
    0x33, 0xf2, 0x2c, 0x1e, 0x28, 0xe4, 0xea, 0xf1, 0x0b, 0x2a, 0x08, 0x1a,
    0xee, 0x28, 0x40, 0xf7, 0x04, 0xff, 0x02, 0x0c, 0xb6, 0xe9, 0x1f, 0xeb,
    0xed, 0xeb, 0xd8, 0x36, 0x2a, 0xf2, 0x06, 0xed, 0xfd, 0xeb, 0x2d, 0x06,
    0x0e, 0x06, 0x03, 0x02, 0x04, 0x1b, 0xf4, 0x01, 0xdd, 0x0f, 0xf3, 0x07,
    0x00, 0x2e, 0x1d, 0xf2, 0xd9, 0x2d, 0xed, 0xee, 0xc7, 0xc3, 0x2f, 0x02,
    0x11, 0xfa, 0xd6, 0x31, 0xe5, 0x0f, 0x1c, 0xf4, 0xf3, 0xe7, 0xf0, 0x0f,
    0x0c, 0x17, 0x1c, 0x0e, 0x25, 0x1f, 0xf8, 0x24, 0xfc, 0x02, 0x4a, 0xef,
    0x06, 0x03, 0xf9, 0xef, 0xf0, 0xf7, 0xe1, 0x0f, 0x2f, 0x2f, 0xf7, 0xef,
    0xe9, 0xf7, 0x1d, 0x37, 0x25, 0xea, 0x1d, 0x27, 0xdc, 0x13, 0x20, 0x17,
    0x14, 0x29, 0x07, 0xf5, 0x40, 0x31, 0x15, 0x36, 0xd5, 0xf1, 0xe7, 0x17,
    0xe5, 0x52, 0x12, 0x31, 0x11, 0xd4, 0x13, 0x1e, 0xf7, 0x20, 0x3e, 0xef,
    0x04, 0x01, 0xf1, 0x45, 0xe5, 0xee, 0x0a, 0xeb, 0xda, 0xf3, 0x21, 0x17,
    0xf7, 0xdd, 0x15, 0xf5, 0xde, 0xf1, 0x26, 0xf3, 0xdc, 0xf0, 0xe9, 0xf4,
    0xe6, 0x0a, 0xf0, 0x07, 0xe3, 0xfd, 0x03, 0x26, 0x0c, 0x1a, 0x25, 0xf4,
    0x0b, 0xdc, 0xee, 0xf9, 0x2d, 0x0b, 0x28, 0xff, 0xe8, 0x1c, 0x0b, 0xf9,
    0x1f, 0x33, 0x02, 0xfa, 0x4e, 0xfd, 0xff, 0xff, 0x04, 0x00, 0x00, 0x00,
    0x80, 0x00, 0x00, 0x00, 0xfb, 0x00, 0x00, 0x00, 0xe4, 0x00, 0x00, 0x00,
    0xf7, 0x00, 0x00, 0x00, 0xb9, 0xff, 0xff, 0xff, 0xa1, 0xff, 0xff, 0xff,
    0x6e, 0x01, 0x00, 0x00, 0xe5, 0x00, 0x00, 0x00, 0xc0, 0xff, 0xff, 0xff,
    0xc0, 0x00, 0x00, 0x00, 0x78, 0x00, 0x00, 0x00, 0xa0, 0x00, 0x00, 0x00,
    0xb7, 0x00, 0x00, 0x00, 0x58, 0x00, 0x00, 0x00, 0xae, 0xff, 0xff, 0xff,
    0x83, 0x00, 0x00, 0x00, 0x66, 0x00, 0x00, 0x00, 0xef, 0xff, 0xff, 0xff,
    0x42, 0x00, 0x00, 0x00, 0x8b, 0x00, 0x00, 0x00, 0xdc, 0x00, 0x00, 0x00,
    0x62, 0x01, 0x00, 0x00, 0xe8, 0x00, 0x00, 0x00, 0xa8, 0x00, 0x00, 0x00,
    0x16, 0x01, 0x00, 0x00, 0x78, 0x00, 0x00, 0x00, 0xe3, 0x00, 0x00, 0x00,
    0x5f, 0x00, 0x00, 0x00, 0xe6, 0x00, 0x00, 0x00, 0x33, 0x01, 0x00, 0x00,
    0xd4, 0xff, 0xff, 0xff, 0xa6, 0x00, 0x00, 0x00, 0xad, 0x00, 0x00, 0x00,
    0xda, 0xfd, 0xff, 0xff, 0x04, 0x00, 0x00, 0x00, 0xa0, 0x00, 0x00, 0x00,
    0x2b, 0x11, 0xd7, 0xd5, 0x03, 0xf8, 0x0b, 0x2c, 0xf6, 0x4a, 0xb2, 0xeb,
    0x3a, 0x0e, 0xc0, 0x3b, 0x2f, 0x3f, 0xc9, 0x37, 0xed, 0xc9, 0xf8, 0x20,
    0x2a, 0xcd, 0x3f, 0x1e, 0xce, 0x13, 0x21, 0xd2, 0x08, 0x35, 0x2f, 0xe4,
    0xee, 0x3a, 0xa8, 0xdc, 0xd6, 0xbc, 0x98, 0xf8, 0x31, 0xef, 0x2d, 0x02,
    0xfd, 0xb9, 0x6a, 0xfe, 0xf2, 0x2a, 0xa7, 0x98, 0xcb, 0xdd, 0xe8, 0xdc,
    0x48, 0x06, 0x07, 0xcb, 0xe5, 0x39, 0xeb, 0x03, 0x3e, 0x9a, 0x9a, 0xf9,
    0x1f, 0xb0, 0x56, 0x2d, 0x0c, 0x26, 0xc1, 0xf8, 0xcb, 0xef, 0x10, 0x0d,
    0x28, 0x03, 0x9e, 0x1d, 0xe3, 0xb5, 0xfe, 0x2b, 0xd1, 0xdf, 0xf3, 0x2e,
    0xf9, 0xc9, 0xe8, 0x29, 0x2c, 0x43, 0xb5, 0x31, 0x2a, 0x36, 0xeb, 0x3e,
    0xbd, 0xf1, 0x3a, 0xa5, 0x48, 0xcc, 0xda, 0xc0, 0x97, 0x2a, 0xfe, 0x45,
    0xf3, 0x35, 0xee, 0xf4, 0x01, 0xe5, 0xb3, 0x11, 0x46, 0x0e, 0x02, 0xe9,
    0xc6, 0xff, 0x7f, 0x03, 0x0c, 0xcc, 0x2d, 0x2c, 0xe8, 0x04, 0xad, 0x61,
    0x8f, 0x21, 0x07, 0x30, 0xe4, 0x36, 0xee, 0x3e, 0x27, 0x3a, 0xa0, 0xc6,
    0x47, 0xce, 0x02, 0xef, 0x86, 0xfe, 0xff, 0xff, 0x04, 0x00, 0x00, 0x00,
    0x14, 0x00, 0x00, 0x00, 0xd0, 0xff, 0xff, 0xff, 0x1f, 0x00, 0x00, 0x00,
    0xf0, 0xff, 0xff, 0xff, 0xcb, 0xff, 0xff, 0xff, 0x58, 0x00, 0x00, 0x00,
    0xa6, 0xfe, 0xff, 0xff, 0x04, 0x00, 0x00, 0x00, 0x08, 0x00, 0x00, 0x00,
    0x01, 0x00, 0x00, 0x00, 0xe0, 0x00, 0x00, 0x00, 0xba, 0xfe, 0xff, 0xff,
    0x04, 0x00, 0x00, 0x00, 0x10, 0x00, 0x00, 0x00, 0x01, 0x00, 0x00, 0x00,
    0x01, 0x00, 0x00, 0x00, 0x4f, 0x00, 0x00, 0x00, 0x10, 0x00, 0x00, 0x00,
    0xd6, 0xfe, 0xff, 0xff, 0x04, 0x00, 0x00, 0x00, 0x18, 0x00, 0x00, 0x00,
    0x00, 0x00, 0x00, 0x00, 0x00, 0x00, 0x00, 0x00, 0x02, 0x00, 0x00, 0x00,
    0x02, 0x00, 0x00, 0x00, 0x00, 0x00, 0x00, 0x00, 0x00, 0x00, 0x00, 0x00,
    0xfa, 0xfe, 0xff, 0xff, 0x04, 0x00, 0x00, 0x00, 0x0c, 0x00, 0x00, 0x00,
    0x01, 0x00, 0x00, 0x00, 0x4b, 0x00, 0x00, 0x00, 0x10, 0x00, 0x00, 0x00,
    0x12, 0xff, 0xff, 0xff, 0x04, 0x00, 0x00, 0x00, 0x10, 0x00, 0x00, 0x00,
    0x01, 0x00, 0x00, 0x00, 0x01, 0x00, 0x00, 0x00, 0x9c, 0x00, 0x00, 0x00,
    0x03, 0x00, 0x00, 0x00, 0x2e, 0xff, 0xff, 0xff, 0x04, 0x00, 0x00, 0x00,
    0x18, 0x00, 0x00, 0x00, 0x00, 0x00, 0x00, 0x00, 0x00, 0x00, 0x00, 0x00,
    0x03, 0x00, 0x00, 0x00, 0x03, 0x00, 0x00, 0x00, 0x00, 0x00, 0x00, 0x00,
    0x00, 0x00, 0x00, 0x00, 0x1c, 0xe9, 0xff, 0xff, 0x20, 0xe9, 0xff, 0xff,
    0x0f, 0x00, 0x00, 0x00, 0x4d, 0x4c, 0x49, 0x52, 0x20, 0x43, 0x6f, 0x6e,
    0x76, 0x65, 0x72, 0x74, 0x65, 0x64, 0x2e, 0x00, 0x01, 0x00, 0x00, 0x00,
    0x14, 0x00, 0x00, 0x00, 0x00, 0x00, 0x0e, 0x00, 0x18, 0x00, 0x14, 0x00,
    0x10, 0x00, 0x0c, 0x00, 0x08, 0x00, 0x04, 0x00, 0x0e, 0x00, 0x00, 0x00,
    0x14, 0x00, 0x00, 0x00, 0x1c, 0x00, 0x00, 0x00, 0x88, 0x03, 0x00, 0x00,
    0x8c, 0x03, 0x00, 0x00, 0x90, 0x03, 0x00, 0x00, 0x04, 0x00, 0x00, 0x00,
    0x6d, 0x61, 0x69, 0x6e, 0x00, 0x00, 0x00, 0x00, 0x0e, 0x00, 0x00, 0x00,
    0x40, 0x03, 0x00, 0x00, 0x08, 0x03, 0x00, 0x00, 0xa8, 0x02, 0x00, 0x00,
    0x44, 0x02, 0x00, 0x00, 0x0c, 0x02, 0x00, 0x00, 0xdc, 0x01, 0x00, 0x00,
    0xb4, 0x01, 0x00, 0x00, 0x6c, 0x01, 0x00, 0x00, 0x28, 0x01, 0x00, 0x00,
    0xe4, 0x00, 0x00, 0x00, 0xbc, 0x00, 0x00, 0x00, 0x78, 0x00, 0x00, 0x00,
    0x40, 0x00, 0x00, 0x00, 0x04, 0x00, 0x00, 0x00, 0xf6, 0xfd, 0xff, 0xff,
    0x1c, 0x00, 0x00, 0x00, 0x00, 0x00, 0x00, 0x09, 0x1c, 0x00, 0x00, 0x00,
    0x20, 0x00, 0x00, 0x00, 0x06, 0x00, 0x00, 0x00, 0x00, 0x00, 0x06, 0x00,
    0x08, 0x00, 0x04, 0x00, 0x06, 0x00, 0x00, 0x00, 0x00, 0x00, 0x80, 0x3f,
    0x01, 0x00, 0x00, 0x00, 0x1c, 0x00, 0x00, 0x00, 0x01, 0x00, 0x00, 0x00,
    0x1b, 0x00, 0x00, 0x00, 0xce, 0xfd, 0xff, 0xff, 0x14, 0x00, 0x00, 0x00,
    0x00, 0x00, 0x00, 0x08, 0x10, 0x00, 0x00, 0x00, 0x14, 0x00, 0x00, 0x00,
    0x05, 0x00, 0x00, 0x00, 0x00, 0xea, 0xff, 0xff, 0x01, 0x00, 0x00, 0x00,
    0x1b, 0x00, 0x00, 0x00, 0x03, 0x00, 0x00, 0x00, 0x1a, 0x00, 0x00, 0x00,
    0x08, 0x00, 0x00, 0x00, 0x07, 0x00, 0x00, 0x00, 0x62, 0xfe, 0xff, 0xff,
    0x1c, 0x00, 0x00, 0x00, 0x00, 0x00, 0x00, 0x08, 0x1c, 0x00, 0x00, 0x00,
    0x20, 0x00, 0x00, 0x00, 0x05, 0x00, 0x00, 0x00, 0x00, 0x00, 0x06, 0x00,
    0x08, 0x00, 0x07, 0x00, 0x06, 0x00, 0x00, 0x00, 0x00, 0x00, 0x00, 0x01,
    0x01, 0x00, 0x00, 0x00, 0x1a, 0x00, 0x00, 0x00, 0x03, 0x00, 0x00, 0x00,
    0x19, 0x00, 0x00, 0x00, 0x0a, 0x00, 0x00, 0x00, 0x09, 0x00, 0x00, 0x00,
    0xe2, 0xfd, 0xff, 0xff, 0x0c, 0x00, 0x00, 0x00, 0x10, 0x00, 0x00, 0x00,
    0x01, 0x00, 0x00, 0x00, 0x01, 0x00, 0x00, 0x00, 0x19, 0x00, 0x00, 0x00,
    0x02, 0x00, 0x00, 0x00, 0x18, 0x00, 0x00, 0x00, 0x06, 0x00, 0x00, 0x00,
    0x66, 0xfe, 0xff, 0xff, 0x14, 0x00, 0x00, 0x00, 0x00, 0x00, 0x00, 0x05,
    0x24, 0x00, 0x00, 0x00, 0x28, 0x00, 0x00, 0x00, 0x04, 0x00, 0x00, 0x00,
    0xb6, 0xfe, 0xff, 0xff, 0x01, 0x00, 0x00, 0x00, 0x05, 0x00, 0x00, 0x00,
    0x01, 0x00, 0x00, 0x00, 0x05, 0x00, 0x00, 0x00, 0x00, 0x00, 0x00, 0x01,
    0x01, 0x00, 0x00, 0x00, 0x18, 0x00, 0x00, 0x00, 0x01, 0x00, 0x00, 0x00,
    0x17, 0x00, 0x00, 0x00, 0xa6, 0xfe, 0xff, 0xff, 0x14, 0x00, 0x00, 0x00,
    0x00, 0x00, 0x00, 0x05, 0x24, 0x00, 0x00, 0x00, 0x28, 0x00, 0x00, 0x00,
    0x03, 0x00, 0x00, 0x00, 0xf6, 0xfe, 0xff, 0xff, 0x01, 0x00, 0x00, 0x00,
    0x02, 0x00, 0x00, 0x00, 0x01, 0x00, 0x00, 0x00, 0x02, 0x00, 0x00, 0x00,
    0x00, 0x00, 0x00, 0x01, 0x01, 0x00, 0x00, 0x00, 0x17, 0x00, 0x00, 0x00,
    0x01, 0x00, 0x00, 0x00, 0x16, 0x00, 0x00, 0x00, 0xe6, 0xfe, 0xff, 0xff,
    0x14, 0x00, 0x00, 0x00, 0x00, 0x00, 0x00, 0x01, 0x20, 0x00, 0x00, 0x00,
    0x24, 0x00, 0x00, 0x00, 0x02, 0x00, 0x00, 0x00, 0xd8, 0xfe, 0xff, 0xff,
    0x00, 0x00, 0x00, 0x01, 0x01, 0x00, 0x00, 0x00, 0x01, 0x00, 0x00, 0x00,
    0x00, 0x00, 0x00, 0x01, 0x01, 0x00, 0x00, 0x00, 0x16, 0x00, 0x00, 0x00,
    0x03, 0x00, 0x00, 0x00, 0x15, 0x00, 0x00, 0x00, 0x0c, 0x00, 0x00, 0x00,
    0x0b, 0x00, 0x00, 0x00, 0xca, 0xfe, 0xff, 0xff, 0x0c, 0x00, 0x00, 0x00,
    0x10, 0x00, 0x00, 0x00, 0x01, 0x00, 0x00, 0x00, 0x01, 0x00, 0x00, 0x00,
    0x15, 0x00, 0x00, 0x00, 0x02, 0x00, 0x00, 0x00, 0x14, 0x00, 0x00, 0x00,
    0x05, 0x00, 0x00, 0x00, 0xbe, 0xfe, 0xff, 0xff, 0x10, 0x00, 0x00, 0x00,
    0x00, 0x00, 0x00, 0x16, 0x0c, 0x00, 0x00, 0x00, 0x10, 0x00, 0x00, 0x00,
    0x7c, 0xeb, 0xff, 0xff, 0x01, 0x00, 0x00, 0x00, 0x14, 0x00, 0x00, 0x00,
    0x02, 0x00, 0x00, 0x00, 0x13, 0x00, 0x00, 0x00, 0x04, 0x00, 0x00, 0x00,
    0x1a, 0xff, 0xff, 0xff, 0x0c, 0x00, 0x00, 0x00, 0x10, 0x00, 0x00, 0x00,
    0x01, 0x00, 0x00, 0x00, 0x01, 0x00, 0x00, 0x00, 0x13, 0x00, 0x00, 0x00,
    0x02, 0x00, 0x00, 0x00, 0x12, 0x00, 0x00, 0x00, 0x03, 0x00, 0x00, 0x00,
    0x00, 0x00, 0x0e, 0x00, 0x1a, 0x00, 0x14, 0x00, 0x10, 0x00, 0x0c, 0x00,
    0x0b, 0x00, 0x04, 0x00, 0x0e, 0x00, 0x00, 0x00, 0x24, 0x00, 0x00, 0x00,
    0x00, 0x00, 0x00, 0x05, 0x34, 0x00, 0x00, 0x00, 0x38, 0x00, 0x00, 0x00,
    0x03, 0x00, 0x00, 0x00, 0x00, 0x00, 0x0e, 0x00, 0x18, 0x00, 0x17, 0x00,
    0x10, 0x00, 0x0c, 0x00, 0x08, 0x00, 0x04, 0x00, 0x0e, 0x00, 0x00, 0x00,
    0x01, 0x00, 0x00, 0x00, 0x02, 0x00, 0x00, 0x00, 0x01, 0x00, 0x00, 0x00,
    0x02, 0x00, 0x00, 0x00, 0x00, 0x00, 0x00, 0x01, 0x01, 0x00, 0x00, 0x00,
    0x12, 0x00, 0x00, 0x00, 0x01, 0x00, 0x00, 0x00, 0x11, 0x00, 0x00, 0x00,
    0x00, 0x00, 0x0e, 0x00, 0x18, 0x00, 0x14, 0x00, 0x10, 0x00, 0x0c, 0x00,
    0x0b, 0x00, 0x04, 0x00, 0x0e, 0x00, 0x00, 0x00, 0x20, 0x00, 0x00, 0x00,
    0x00, 0x00, 0x00, 0x01, 0x2c, 0x00, 0x00, 0x00, 0x30, 0x00, 0x00, 0x00,
    0x02, 0x00, 0x00, 0x00, 0x0c, 0x00, 0x14, 0x00, 0x13, 0x00, 0x0c, 0x00,
    0x08, 0x00, 0x07, 0x00, 0x0c, 0x00, 0x00, 0x00, 0x00, 0x00, 0x00, 0x01,
    0x01, 0x00, 0x00, 0x00, 0x01, 0x00, 0x00, 0x00, 0x00, 0x00, 0x00, 0x01,
    0x01, 0x00, 0x00, 0x00, 0x11, 0x00, 0x00, 0x00, 0x03, 0x00, 0x00, 0x00,
    0x10, 0x00, 0x00, 0x00, 0x0e, 0x00, 0x00, 0x00, 0x0d, 0x00, 0x00, 0x00,
    0x00, 0x00, 0x0a, 0x00, 0x10, 0x00, 0x0c, 0x00, 0x08, 0x00, 0x04, 0x00,
    0x0a, 0x00, 0x00, 0x00, 0x0c, 0x00, 0x00, 0x00, 0x10, 0x00, 0x00, 0x00,
    0x01, 0x00, 0x00, 0x00, 0x01, 0x00, 0x00, 0x00, 0x10, 0x00, 0x00, 0x00,
    0x02, 0x00, 0x00, 0x00, 0x0f, 0x00, 0x00, 0x00, 0x02, 0x00, 0x00, 0x00,
    0x00, 0x00, 0x0e, 0x00, 0x14, 0x00, 0x00, 0x00, 0x10, 0x00, 0x0c, 0x00,
    0x0b, 0x00, 0x04, 0x00, 0x0e, 0x00, 0x00, 0x00, 0x10, 0x00, 0x00, 0x00,
    0x00, 0x00, 0x00, 0x16, 0x0c, 0x00, 0x00, 0x00, 0x10, 0x00, 0x00, 0x00,
    0xcc, 0xec, 0xff, 0xff, 0x01, 0x00, 0x00, 0x00, 0x0f, 0x00, 0x00, 0x00,
    0x02, 0x00, 0x00, 0x00, 0x00, 0x00, 0x00, 0x00, 0x01, 0x00, 0x00, 0x00,
    0x01, 0x00, 0x00, 0x00, 0x1c, 0x00, 0x00, 0x00, 0x01, 0x00, 0x00, 0x00,
    0x00, 0x00, 0x00, 0x00, 0x1d, 0x00, 0x00, 0x00, 0x48, 0x13, 0x00, 0x00,
    0xe8, 0x12, 0x00, 0x00, 0xa8, 0x12, 0x00, 0x00, 0x68, 0x12, 0x00, 0x00,
    0x24, 0x12, 0x00, 0x00, 0xe4, 0x11, 0x00, 0x00, 0xa4, 0x11, 0x00, 0x00,
    0x40, 0x11, 0x00, 0x00, 0xdc, 0x10, 0x00, 0x00, 0x78, 0x10, 0x00, 0x00,
    0x14, 0x10, 0x00, 0x00, 0x40, 0x0e, 0x00, 0x00, 0x5c, 0x0c, 0x00, 0x00,
    0x48, 0x0b, 0x00, 0x00, 0x24, 0x0a, 0x00, 0x00, 0xa8, 0x09, 0x00, 0x00,
    0x1c, 0x09, 0x00, 0x00, 0x30, 0x07, 0x00, 0x00, 0xac, 0x06, 0x00, 0x00,
    0x20, 0x06, 0x00, 0x00, 0xa4, 0x05, 0x00, 0x00, 0x18, 0x05, 0x00, 0x00,
    0x2c, 0x03, 0x00, 0x00, 0xa8, 0x02, 0x00, 0x00, 0x1c, 0x02, 0x00, 0x00,
    0xa8, 0x01, 0x00, 0x00, 0xf4, 0x00, 0x00, 0x00, 0x60, 0x00, 0x00, 0x00,
    0x04, 0x00, 0x00, 0x00, 0x42, 0xed, 0xff, 0xff, 0x00, 0x00, 0x00, 0x01,
    0x14, 0x00, 0x00, 0x00, 0x30, 0x00, 0x00, 0x00, 0x1d, 0x00, 0x00, 0x00,
    0x00, 0x00, 0x00, 0x09, 0x34, 0x00, 0x00, 0x00, 0x2c, 0xed, 0xff, 0xff,
    0x08, 0x00, 0x00, 0x00, 0x10, 0x00, 0x00, 0x00, 0x01, 0x00, 0x00, 0x00,
    0x80, 0xff, 0xff, 0xff, 0xff, 0xff, 0xff, 0xff, 0x01, 0x00, 0x00, 0x00,
    0x00, 0x00, 0x80, 0x3b, 0x08, 0x00, 0x00, 0x00, 0x49, 0x64, 0x65, 0x6e,
    0x74, 0x69, 0x74, 0x79, 0x00, 0x00, 0x00, 0x00, 0x02, 0x00, 0x00, 0x00,
    0x01, 0x00, 0x00, 0x00, 0x05, 0x00, 0x00, 0x00, 0x9a, 0xed, 0xff, 0xff,
    0x00, 0x00, 0x00, 0x01, 0x14, 0x00, 0x00, 0x00, 0x30, 0x00, 0x00, 0x00,
    0x1c, 0x00, 0x00, 0x00, 0x00, 0x00, 0x00, 0x09, 0x6c, 0x00, 0x00, 0x00,
    0x84, 0xed, 0xff, 0xff, 0x08, 0x00, 0x00, 0x00, 0x10, 0x00, 0x00, 0x00,
    0x01, 0x00, 0x00, 0x00, 0xea, 0xff, 0xff, 0xff, 0xff, 0xff, 0xff, 0xff,
    0x01, 0x00, 0x00, 0x00, 0xa1, 0x23, 0x90, 0x3e, 0x40, 0x00, 0x00, 0x00,
    0x73, 0x65, 0x71, 0x75, 0x65, 0x6e, 0x74, 0x69, 0x61, 0x6c, 0x5f, 0x31,
    0x5f, 0x31, 0x2f, 0x64, 0x65, 0x6e, 0x73, 0x65, 0x5f, 0x33, 0x5f, 0x31,
    0x2f, 0x4d, 0x61, 0x74, 0x4d, 0x75, 0x6c, 0x3b, 0x73, 0x65, 0x71, 0x75,
    0x65, 0x6e, 0x74, 0x69, 0x61, 0x6c, 0x5f, 0x31, 0x5f, 0x31, 0x2f, 0x64,
    0x65, 0x6e, 0x73, 0x65, 0x5f, 0x33, 0x5f, 0x31, 0x2f, 0x42, 0x69, 0x61,
    0x73, 0x41, 0x64, 0x64, 0x00, 0x00, 0x00, 0x00, 0x02, 0x00, 0x00, 0x00,
    0x01, 0x00, 0x00, 0x00, 0x05, 0x00, 0x00, 0x00, 0x2a, 0xee, 0xff, 0xff,
    0x00, 0x00, 0x00, 0x01, 0x14, 0x00, 0x00, 0x00, 0x34, 0x00, 0x00, 0x00,
    0x1b, 0x00, 0x00, 0x00, 0x00, 0x00, 0x00, 0x09, 0x8c, 0x00, 0x00, 0x00,
    0x14, 0xee, 0xff, 0xff, 0x08, 0x00, 0x00, 0x00, 0x14, 0x00, 0x00, 0x00,
    0x01, 0x00, 0x00, 0x00, 0x80, 0xff, 0xff, 0xff, 0xff, 0xff, 0xff, 0xff,
    0x00, 0x00, 0x00, 0x00, 0x01, 0x00, 0x00, 0x00, 0x9f, 0xb3, 0xb1, 0x3d,
    0x5e, 0x00, 0x00, 0x00, 0x73, 0x65, 0x71, 0x75, 0x65, 0x6e, 0x74, 0x69,
    0x61, 0x6c, 0x5f, 0x31, 0x5f, 0x31, 0x2f, 0x64, 0x65, 0x6e, 0x73, 0x65,
    0x5f, 0x32, 0x5f, 0x31, 0x2f, 0x4d, 0x61, 0x74, 0x4d, 0x75, 0x6c, 0x3b,
    0x73, 0x65, 0x71, 0x75, 0x65, 0x6e, 0x74, 0x69, 0x61, 0x6c, 0x5f, 0x31,
    0x5f, 0x31, 0x2f, 0x72, 0x65, 0x5f, 0x6c, 0x75, 0x5f, 0x35, 0x5f, 0x31,
    0x2f, 0x52, 0x65, 0x6c, 0x75, 0x3b, 0x73, 0x65, 0x71, 0x75, 0x65, 0x6e,
    0x74, 0x69, 0x61, 0x6c, 0x5f, 0x31, 0x5f, 0x31, 0x2f, 0x64, 0x65, 0x6e,
    0x73, 0x65, 0x5f, 0x32, 0x5f, 0x31, 0x2f, 0x42, 0x69, 0x61, 0x73, 0x41,
    0x64, 0x64, 0x00, 0x00, 0x02, 0x00, 0x00, 0x00, 0x01, 0x00, 0x00, 0x00,
    0x20, 0x00, 0x00, 0x00, 0xda, 0xee, 0xff, 0xff, 0x00, 0x00, 0x00, 0x01,
    0x14, 0x00, 0x00, 0x00, 0x30, 0x00, 0x00, 0x00, 0x1a, 0x00, 0x00, 0x00,
    0x00, 0x00, 0x00, 0x09, 0x4c, 0x00, 0x00, 0x00, 0xc4, 0xee, 0xff, 0xff,
    0x08, 0x00, 0x00, 0x00, 0x10, 0x00, 0x00, 0x00, 0x01, 0x00, 0x00, 0x00,
    0x80, 0xff, 0xff, 0xff, 0xff, 0xff, 0xff, 0xff, 0x01, 0x00, 0x00, 0x00,
    0x31, 0x5a, 0x87, 0x3d, 0x22, 0x00, 0x00, 0x00, 0x73, 0x65, 0x71, 0x75,
    0x65, 0x6e, 0x74, 0x69, 0x61, 0x6c, 0x5f, 0x31, 0x5f, 0x31, 0x2f, 0x66,
    0x6c, 0x61, 0x74, 0x74, 0x65, 0x6e, 0x5f, 0x31, 0x5f, 0x31, 0x2f, 0x52,
    0x65, 0x73, 0x68, 0x61, 0x70, 0x65, 0x00, 0x00, 0x02, 0x00, 0x00, 0x00,
    0x01, 0x00, 0x00, 0x00, 0xe0, 0x00, 0x00, 0x00, 0x4a, 0xef, 0xff, 0xff,
    0x00, 0x00, 0x00, 0x01, 0x14, 0x00, 0x00, 0x00, 0x34, 0x00, 0x00, 0x00,
    0x19, 0x00, 0x00, 0x00, 0x00, 0x00, 0x00, 0x09, 0x5c, 0x00, 0x00, 0x00,
    0x34, 0xef, 0xff, 0xff, 0x08, 0x00, 0x00, 0x00, 0x14, 0x00, 0x00, 0x00,
    0x01, 0x00, 0x00, 0x00, 0x80, 0xff, 0xff, 0xff, 0xff, 0xff, 0xff, 0xff,
    0x00, 0x00, 0x00, 0x00, 0x01, 0x00, 0x00, 0x00, 0x31, 0x5a, 0x87, 0x3d,
    0x2e, 0x00, 0x00, 0x00, 0x73, 0x65, 0x71, 0x75, 0x65, 0x6e, 0x74, 0x69,
    0x61, 0x6c, 0x5f, 0x31, 0x5f, 0x31, 0x2f, 0x61, 0x76, 0x65, 0x72, 0x61,
    0x67, 0x65, 0x5f, 0x70, 0x6f, 0x6f, 0x6c, 0x69, 0x6e, 0x67, 0x31, 0x64,
    0x5f, 0x31, 0x5f, 0x31, 0x2f, 0x41, 0x76, 0x67, 0x50, 0x6f, 0x6f, 0x6c,
    0x31, 0x44, 0x00, 0x00, 0x04, 0x00, 0x00, 0x00, 0x01, 0x00, 0x00, 0x00,
    0x01, 0x00, 0x00, 0x00, 0x07, 0x00, 0x00, 0x00, 0x20, 0x00, 0x00, 0x00,
    0xd2, 0xef, 0xff, 0xff, 0x00, 0x00, 0x00, 0x01, 0x14, 0x00, 0x00, 0x00,
    0x30, 0x00, 0x00, 0x00, 0x18, 0x00, 0x00, 0x00, 0x00, 0x00, 0x00, 0x09,
    0x54, 0x00, 0x00, 0x00, 0xbc, 0xef, 0xff, 0xff, 0x08, 0x00, 0x00, 0x00,
    0x10, 0x00, 0x00, 0x00, 0x01, 0x00, 0x00, 0x00, 0x80, 0xff, 0xff, 0xff,
    0xff, 0xff, 0xff, 0xff, 0x01, 0x00, 0x00, 0x00, 0x31, 0x5a, 0x87, 0x3d,
    0x2a, 0x00, 0x00, 0x00, 0x73, 0x65, 0x71, 0x75, 0x65, 0x6e, 0x74, 0x69,
    0x61, 0x6c, 0x5f, 0x31, 0x5f, 0x31, 0x2f, 0x6d, 0x61, 0x78, 0x5f, 0x70,
    0x6f, 0x6f, 0x6c, 0x69, 0x6e, 0x67, 0x31, 0x64, 0x5f, 0x33, 0x5f, 0x31,
    0x2f, 0x4d, 0x61, 0x78, 0x50, 0x6f, 0x6f, 0x6c, 0x31, 0x64, 0x00, 0x00,
    0x04, 0x00, 0x00, 0x00, 0x01, 0x00, 0x00, 0x00, 0x01, 0x00, 0x00, 0x00,
    0x25, 0x00, 0x00, 0x00, 0x20, 0x00, 0x00, 0x00, 0x52, 0xf0, 0xff, 0xff,
    0x00, 0x00, 0x00, 0x01, 0x14, 0x00, 0x00, 0x00, 0x34, 0x00, 0x00, 0x00,
    0x17, 0x00, 0x00, 0x00, 0x00, 0x00, 0x00, 0x09, 0xbc, 0x01, 0x00, 0x00,
    0x3c, 0xf0, 0xff, 0xff, 0x08, 0x00, 0x00, 0x00, 0x14, 0x00, 0x00, 0x00,
    0x01, 0x00, 0x00, 0x00, 0x80, 0xff, 0xff, 0xff, 0xff, 0xff, 0xff, 0xff,
    0x00, 0x00, 0x00, 0x00, 0x01, 0x00, 0x00, 0x00, 0x31, 0x5a, 0x87, 0x3d,
    0x8d, 0x01, 0x00, 0x00, 0x73, 0x65, 0x71, 0x75, 0x65, 0x6e, 0x74, 0x69,
    0x61, 0x6c, 0x5f, 0x31, 0x5f, 0x31, 0x2f, 0x72, 0x65, 0x5f, 0x6c, 0x75,
    0x5f, 0x34, 0x5f, 0x31, 0x2f, 0x52, 0x65, 0x6c, 0x75, 0x3b, 0x73, 0x65,
    0x71, 0x75, 0x65, 0x6e, 0x74, 0x69, 0x61, 0x6c, 0x5f, 0x31, 0x5f, 0x31,
    0x2f, 0x62, 0x61, 0x74, 0x63, 0x68, 0x5f, 0x6e, 0x6f, 0x72, 0x6d, 0x61,
    0x6c, 0x69, 0x7a, 0x61, 0x74, 0x69, 0x6f, 0x6e, 0x5f, 0x33, 0x5f, 0x31,
    0x2f, 0x62, 0x61, 0x74, 0x63, 0x68, 0x6e, 0x6f, 0x72, 0x6d, 0x2f, 0x61,
    0x64, 0x64, 0x5f, 0x31, 0x3b, 0x73, 0x65, 0x71, 0x75, 0x65, 0x6e, 0x74,
    0x69, 0x61, 0x6c, 0x5f, 0x31, 0x5f, 0x31, 0x2f, 0x63, 0x6f, 0x6e, 0x76,
    0x31, 0x64, 0x5f, 0x33, 0x5f, 0x31, 0x2f, 0x63, 0x6f, 0x6e, 0x76, 0x6f,
    0x6c, 0x75, 0x74, 0x69, 0x6f, 0x6e, 0x2f, 0x53, 0x71, 0x75, 0x65, 0x65,
    0x7a, 0x65, 0x3b, 0x73, 0x65, 0x71, 0x75, 0x65, 0x6e, 0x74, 0x69, 0x61,
    0x6c, 0x5f, 0x31, 0x5f, 0x31, 0x2f, 0x62, 0x61, 0x74, 0x63, 0x68, 0x5f,
    0x6e, 0x6f, 0x72, 0x6d, 0x61, 0x6c, 0x69, 0x7a, 0x61, 0x74, 0x69, 0x6f,
    0x6e, 0x5f, 0x33, 0x5f, 0x31, 0x2f, 0x62, 0x61, 0x74, 0x63, 0x68, 0x6e,
    0x6f, 0x72, 0x6d, 0x2f, 0x6d, 0x75, 0x6c, 0x5f, 0x31, 0x3b, 0x73, 0x65,
    0x71, 0x75, 0x65, 0x6e, 0x74, 0x69, 0x61, 0x6c, 0x5f, 0x31, 0x5f, 0x31,
    0x2f, 0x63, 0x6f, 0x6e, 0x76, 0x31, 0x64, 0x5f, 0x33, 0x5f, 0x31, 0x2f,
    0x42, 0x69, 0x61, 0x73, 0x41, 0x64, 0x64, 0x3b, 0x73, 0x65, 0x71, 0x75,
    0x65, 0x6e, 0x74, 0x69, 0x61, 0x6c, 0x5f, 0x31, 0x5f, 0x31, 0x2f, 0x63,
    0x6f, 0x6e, 0x76, 0x31, 0x64, 0x5f, 0x33, 0x5f, 0x31, 0x2f, 0x53, 0x71,
    0x75, 0x65, 0x65, 0x7a, 0x65, 0x3b, 0x73, 0x65, 0x71, 0x75, 0x65, 0x6e,
    0x74, 0x69, 0x61, 0x6c, 0x5f, 0x31, 0x5f, 0x31, 0x2f, 0x62, 0x61, 0x74,
    0x63, 0x68, 0x5f, 0x6e, 0x6f, 0x72, 0x6d, 0x61, 0x6c, 0x69, 0x7a, 0x61,
    0x74, 0x69, 0x6f, 0x6e, 0x5f, 0x33, 0x5f, 0x31, 0x2f, 0x62, 0x61, 0x74,
    0x63, 0x68, 0x6e, 0x6f, 0x72, 0x6d, 0x2f, 0x6d, 0x75, 0x6c, 0x3b, 0x73,
    0x65, 0x71, 0x75, 0x65, 0x6e, 0x74, 0x69, 0x61, 0x6c, 0x5f, 0x31, 0x5f,
    0x31, 0x2f, 0x62, 0x61, 0x74, 0x63, 0x68, 0x5f, 0x6e, 0x6f, 0x72, 0x6d,
    0x61, 0x6c, 0x69, 0x7a, 0x61, 0x74, 0x69, 0x6f, 0x6e, 0x5f, 0x33, 0x5f,
    0x31, 0x2f, 0x62, 0x61, 0x74, 0x63, 0x68, 0x6e, 0x6f, 0x72, 0x6d, 0x2f,
    0x73, 0x75, 0x62, 0x3b, 0x73, 0x65, 0x71, 0x75, 0x65, 0x6e, 0x74, 0x69,
    0x61, 0x6c, 0x5f, 0x31, 0x5f, 0x31, 0x2f, 0x63, 0x6f, 0x6e, 0x76, 0x31,
    0x64, 0x5f, 0x33, 0x5f, 0x31, 0x2f, 0x63, 0x6f, 0x6e, 0x76, 0x6f, 0x6c,
    0x75, 0x74, 0x69, 0x6f, 0x6e, 0x00, 0x00, 0x00, 0x04, 0x00, 0x00, 0x00,
    0x01, 0x00, 0x00, 0x00, 0x01, 0x00, 0x00, 0x00, 0x4b, 0x00, 0x00, 0x00,
    0x20, 0x00, 0x00, 0x00, 0x3a, 0xf2, 0xff, 0xff, 0x00, 0x00, 0x00, 0x01,
    0x14, 0x00, 0x00, 0x00, 0x30, 0x00, 0x00, 0x00, 0x16, 0x00, 0x00, 0x00,
    0x00, 0x00, 0x00, 0x09, 0x5c, 0x00, 0x00, 0x00, 0x24, 0xf2, 0xff, 0xff,
    0x08, 0x00, 0x00, 0x00, 0x10, 0x00, 0x00, 0x00, 0x01, 0x00, 0x00, 0x00,
    0x80, 0xff, 0xff, 0xff, 0xff, 0xff, 0xff, 0xff, 0x01, 0x00, 0x00, 0x00,
    0xfc, 0xf5, 0x6a, 0x3d, 0x30, 0x00, 0x00, 0x00, 0x73, 0x65, 0x71, 0x75,
    0x65, 0x6e, 0x74, 0x69, 0x61, 0x6c, 0x5f, 0x31, 0x5f, 0x31, 0x2f, 0x63,
    0x6f, 0x6e, 0x76, 0x31, 0x64, 0x5f, 0x33, 0x5f, 0x31, 0x2f, 0x63, 0x6f,
    0x6e, 0x76, 0x6f, 0x6c, 0x75, 0x74, 0x69, 0x6f, 0x6e, 0x2f, 0x45, 0x78,
    0x70, 0x61, 0x6e, 0x64, 0x44, 0x69, 0x6d, 0x73, 0x00, 0x00, 0x00, 0x00,
    0x04, 0x00, 0x00, 0x00, 0x01, 0x00, 0x00, 0x00, 0x01, 0x00, 0x00, 0x00,
    0x4f, 0x00, 0x00, 0x00, 0x10, 0x00, 0x00, 0x00, 0xc2, 0xf2, 0xff, 0xff,
    0x00, 0x00, 0x00, 0x01, 0x14, 0x00, 0x00, 0x00, 0x30, 0x00, 0x00, 0x00,
    0x15, 0x00, 0x00, 0x00, 0x00, 0x00, 0x00, 0x09, 0x50, 0x00, 0x00, 0x00,
    0xac, 0xf2, 0xff, 0xff, 0x08, 0x00, 0x00, 0x00, 0x10, 0x00, 0x00, 0x00,
    0x01, 0x00, 0x00, 0x00, 0x80, 0xff, 0xff, 0xff, 0xff, 0xff, 0xff, 0xff,
    0x01, 0x00, 0x00, 0x00, 0xfc, 0xf5, 0x6a, 0x3d, 0x25, 0x00, 0x00, 0x00,
    0x73, 0x65, 0x71, 0x75, 0x65, 0x6e, 0x74, 0x69, 0x61, 0x6c, 0x5f, 0x31,
    0x5f, 0x31, 0x2f, 0x7a, 0x65, 0x72, 0x6f, 0x5f, 0x70, 0x61, 0x64, 0x64,
    0x69, 0x6e, 0x67, 0x31, 0x64, 0x5f, 0x33, 0x5f, 0x31, 0x2f, 0x50, 0x61,
    0x64, 0x00, 0x00, 0x00, 0x03, 0x00, 0x00, 0x00, 0x01, 0x00, 0x00, 0x00,
    0x4f, 0x00, 0x00, 0x00, 0x10, 0x00, 0x00, 0x00, 0x3a, 0xf3, 0xff, 0xff,
    0x00, 0x00, 0x00, 0x01, 0x14, 0x00, 0x00, 0x00, 0x34, 0x00, 0x00, 0x00,
    0x14, 0x00, 0x00, 0x00, 0x00, 0x00, 0x00, 0x09, 0x60, 0x00, 0x00, 0x00,
    0x24, 0xf3, 0xff, 0xff, 0x08, 0x00, 0x00, 0x00, 0x14, 0x00, 0x00, 0x00,
    0x01, 0x00, 0x00, 0x00, 0x80, 0xff, 0xff, 0xff, 0xff, 0xff, 0xff, 0xff,
    0x00, 0x00, 0x00, 0x00, 0x01, 0x00, 0x00, 0x00, 0xfc, 0xf5, 0x6a, 0x3d,
    0x32, 0x00, 0x00, 0x00, 0x73, 0x65, 0x71, 0x75, 0x65, 0x6e, 0x74, 0x69,
    0x61, 0x6c, 0x5f, 0x31, 0x5f, 0x31, 0x2f, 0x6d, 0x61, 0x78, 0x5f, 0x70,
    0x6f, 0x6f, 0x6c, 0x69, 0x6e, 0x67, 0x31, 0x64, 0x5f, 0x32, 0x5f, 0x31,
    0x2f, 0x4d, 0x61, 0x78, 0x50, 0x6f, 0x6f, 0x6c, 0x31, 0x64, 0x2f, 0x53,
    0x71, 0x75, 0x65, 0x65, 0x7a, 0x65, 0x00, 0x00, 0x03, 0x00, 0x00, 0x00,
    0x01, 0x00, 0x00, 0x00, 0x4b, 0x00, 0x00, 0x00, 0x10, 0x00, 0x00, 0x00,
    0xc2, 0xf3, 0xff, 0xff, 0x00, 0x00, 0x00, 0x01, 0x14, 0x00, 0x00, 0x00,
    0x30, 0x00, 0x00, 0x00, 0x13, 0x00, 0x00, 0x00, 0x00, 0x00, 0x00, 0x09,
    0x54, 0x00, 0x00, 0x00, 0xac, 0xf3, 0xff, 0xff, 0x08, 0x00, 0x00, 0x00,
    0x10, 0x00, 0x00, 0x00, 0x01, 0x00, 0x00, 0x00, 0x80, 0xff, 0xff, 0xff,
    0xff, 0xff, 0xff, 0xff, 0x01, 0x00, 0x00, 0x00, 0xfc, 0xf5, 0x6a, 0x3d,
    0x2a, 0x00, 0x00, 0x00, 0x73, 0x65, 0x71, 0x75, 0x65, 0x6e, 0x74, 0x69,
    0x61, 0x6c, 0x5f, 0x31, 0x5f, 0x31, 0x2f, 0x6d, 0x61, 0x78, 0x5f, 0x70,
    0x6f, 0x6f, 0x6c, 0x69, 0x6e, 0x67, 0x31, 0x64, 0x5f, 0x32, 0x5f, 0x31,
    0x2f, 0x4d, 0x61, 0x78, 0x50, 0x6f, 0x6f, 0x6c, 0x31, 0x64, 0x00, 0x00,
    0x04, 0x00, 0x00, 0x00, 0x01, 0x00, 0x00, 0x00, 0x01, 0x00, 0x00, 0x00,
    0x4b, 0x00, 0x00, 0x00, 0x10, 0x00, 0x00, 0x00, 0x42, 0xf4, 0xff, 0xff,
    0x00, 0x00, 0x00, 0x01, 0x14, 0x00, 0x00, 0x00, 0x34, 0x00, 0x00, 0x00,
    0x12, 0x00, 0x00, 0x00, 0x00, 0x00, 0x00, 0x09, 0xbc, 0x01, 0x00, 0x00,
    0x2c, 0xf4, 0xff, 0xff, 0x08, 0x00, 0x00, 0x00, 0x14, 0x00, 0x00, 0x00,
    0x01, 0x00, 0x00, 0x00, 0x80, 0xff, 0xff, 0xff, 0xff, 0xff, 0xff, 0xff,
    0x00, 0x00, 0x00, 0x00, 0x01, 0x00, 0x00, 0x00, 0xfc, 0xf5, 0x6a, 0x3d,
    0x8d, 0x01, 0x00, 0x00, 0x73, 0x65, 0x71, 0x75, 0x65, 0x6e, 0x74, 0x69,
    0x61, 0x6c, 0x5f, 0x31, 0x5f, 0x31, 0x2f, 0x72, 0x65, 0x5f, 0x6c, 0x75,
    0x5f, 0x33, 0x5f, 0x31, 0x2f, 0x52, 0x65, 0x6c, 0x75, 0x3b, 0x73, 0x65,
    0x71, 0x75, 0x65, 0x6e, 0x74, 0x69, 0x61, 0x6c, 0x5f, 0x31, 0x5f, 0x31,
    0x2f, 0x62, 0x61, 0x74, 0x63, 0x68, 0x5f, 0x6e, 0x6f, 0x72, 0x6d, 0x61,
    0x6c, 0x69, 0x7a, 0x61, 0x74, 0x69, 0x6f, 0x6e, 0x5f, 0x32, 0x5f, 0x31,
    0x2f, 0x62, 0x61, 0x74, 0x63, 0x68, 0x6e, 0x6f, 0x72, 0x6d, 0x2f, 0x61,
    0x64, 0x64, 0x5f, 0x31, 0x3b, 0x73, 0x65, 0x71, 0x75, 0x65, 0x6e, 0x74,
    0x69, 0x61, 0x6c, 0x5f, 0x31, 0x5f, 0x31, 0x2f, 0x63, 0x6f, 0x6e, 0x76,
    0x31, 0x64, 0x5f, 0x32, 0x5f, 0x31, 0x2f, 0x63, 0x6f, 0x6e, 0x76, 0x6f,
    0x6c, 0x75, 0x74, 0x69, 0x6f, 0x6e, 0x2f, 0x53, 0x71, 0x75, 0x65, 0x65,
    0x7a, 0x65, 0x3b, 0x73, 0x65, 0x71, 0x75, 0x65, 0x6e, 0x74, 0x69, 0x61,
    0x6c, 0x5f, 0x31, 0x5f, 0x31, 0x2f, 0x62, 0x61, 0x74, 0x63, 0x68, 0x5f,
    0x6e, 0x6f, 0x72, 0x6d, 0x61, 0x6c, 0x69, 0x7a, 0x61, 0x74, 0x69, 0x6f,
    0x6e, 0x5f, 0x32, 0x5f, 0x31, 0x2f, 0x62, 0x61, 0x74, 0x63, 0x68, 0x6e,
    0x6f, 0x72, 0x6d, 0x2f, 0x6d, 0x75, 0x6c, 0x5f, 0x31, 0x3b, 0x73, 0x65,
    0x71, 0x75, 0x65, 0x6e, 0x74, 0x69, 0x61, 0x6c, 0x5f, 0x31, 0x5f, 0x31,
    0x2f, 0x63, 0x6f, 0x6e, 0x76, 0x31, 0x64, 0x5f, 0x32, 0x5f, 0x31, 0x2f,
    0x42, 0x69, 0x61, 0x73, 0x41, 0x64, 0x64, 0x3b, 0x73, 0x65, 0x71, 0x75,
    0x65, 0x6e, 0x74, 0x69, 0x61, 0x6c, 0x5f, 0x31, 0x5f, 0x31, 0x2f, 0x63,
    0x6f, 0x6e, 0x76, 0x31, 0x64, 0x5f, 0x32, 0x5f, 0x31, 0x2f, 0x53, 0x71,
    0x75, 0x65, 0x65, 0x7a, 0x65, 0x3b, 0x73, 0x65, 0x71, 0x75, 0x65, 0x6e,
    0x74, 0x69, 0x61, 0x6c, 0x5f, 0x31, 0x5f, 0x31, 0x2f, 0x62, 0x61, 0x74,
    0x63, 0x68, 0x5f, 0x6e, 0x6f, 0x72, 0x6d, 0x61, 0x6c, 0x69, 0x7a, 0x61,
    0x74, 0x69, 0x6f, 0x6e, 0x5f, 0x32, 0x5f, 0x31, 0x2f, 0x62, 0x61, 0x74,
    0x63, 0x68, 0x6e, 0x6f, 0x72, 0x6d, 0x2f, 0x6d, 0x75, 0x6c, 0x3b, 0x73,
    0x65, 0x71, 0x75, 0x65, 0x6e, 0x74, 0x69, 0x61, 0x6c, 0x5f, 0x31, 0x5f,
    0x31, 0x2f, 0x62, 0x61, 0x74, 0x63, 0x68, 0x5f, 0x6e, 0x6f, 0x72, 0x6d,
    0x61, 0x6c, 0x69, 0x7a, 0x61, 0x74, 0x69, 0x6f, 0x6e, 0x5f, 0x32, 0x5f,
    0x31, 0x2f, 0x62, 0x61, 0x74, 0x63, 0x68, 0x6e, 0x6f, 0x72, 0x6d, 0x2f,
    0x73, 0x75, 0x62, 0x3b, 0x73, 0x65, 0x71, 0x75, 0x65, 0x6e, 0x74, 0x69,
    0x61, 0x6c, 0x5f, 0x31, 0x5f, 0x31, 0x2f, 0x63, 0x6f, 0x6e, 0x76, 0x31,
    0x64, 0x5f, 0x32, 0x5f, 0x31, 0x2f, 0x63, 0x6f, 0x6e, 0x76, 0x6f, 0x6c,
    0x75, 0x74, 0x69, 0x6f, 0x6e, 0x00, 0x00, 0x00, 0x04, 0x00, 0x00, 0x00,
    0x01, 0x00, 0x00, 0x00, 0x01, 0x00, 0x00, 0x00, 0x96, 0x00, 0x00, 0x00,
    0x10, 0x00, 0x00, 0x00, 0x2a, 0xf6, 0xff, 0xff, 0x00, 0x00, 0x00, 0x01,
    0x14, 0x00, 0x00, 0x00, 0x30, 0x00, 0x00, 0x00, 0x11, 0x00, 0x00, 0x00,
    0x00, 0x00, 0x00, 0x09, 0x5c, 0x00, 0x00, 0x00, 0x14, 0xf6, 0xff, 0xff,
    0x08, 0x00, 0x00, 0x00, 0x10, 0x00, 0x00, 0x00, 0x01, 0x00, 0x00, 0x00,
    0x07, 0x00, 0x00, 0x00, 0x00, 0x00, 0x00, 0x00, 0x01, 0x00, 0x00, 0x00,
    0xda, 0xdb, 0xaa, 0x3d, 0x30, 0x00, 0x00, 0x00, 0x73, 0x65, 0x71, 0x75,
    0x65, 0x6e, 0x74, 0x69, 0x61, 0x6c, 0x5f, 0x31, 0x5f, 0x31, 0x2f, 0x63,
    0x6f, 0x6e, 0x76, 0x31, 0x64, 0x5f, 0x32, 0x5f, 0x31, 0x2f, 0x63, 0x6f,
    0x6e, 0x76, 0x6f, 0x6c, 0x75, 0x74, 0x69, 0x6f, 0x6e, 0x2f, 0x45, 0x78,
    0x70, 0x61, 0x6e, 0x64, 0x44, 0x69, 0x6d, 0x73, 0x00, 0x00, 0x00, 0x00,
    0x04, 0x00, 0x00, 0x00, 0x01, 0x00, 0x00, 0x00, 0x01, 0x00, 0x00, 0x00,
    0x9c, 0x00, 0x00, 0x00, 0x03, 0x00, 0x00, 0x00, 0xb2, 0xf6, 0xff, 0xff,
    0x00, 0x00, 0x00, 0x01, 0x14, 0x00, 0x00, 0x00, 0x30, 0x00, 0x00, 0x00,
    0x10, 0x00, 0x00, 0x00, 0x00, 0x00, 0x00, 0x09, 0x50, 0x00, 0x00, 0x00,
    0x9c, 0xf6, 0xff, 0xff, 0x08, 0x00, 0x00, 0x00, 0x10, 0x00, 0x00, 0x00,
    0x01, 0x00, 0x00, 0x00, 0x07, 0x00, 0x00, 0x00, 0x00, 0x00, 0x00, 0x00,
    0x01, 0x00, 0x00, 0x00, 0xda, 0xdb, 0xaa, 0x3d, 0x25, 0x00, 0x00, 0x00,
    0x73, 0x65, 0x71, 0x75, 0x65, 0x6e, 0x74, 0x69, 0x61, 0x6c, 0x5f, 0x31,
    0x5f, 0x31, 0x2f, 0x7a, 0x65, 0x72, 0x6f, 0x5f, 0x70, 0x61, 0x64, 0x64,
    0x69, 0x6e, 0x67, 0x31, 0x64, 0x5f, 0x32, 0x5f, 0x31, 0x2f, 0x50, 0x61,
    0x64, 0x00, 0x00, 0x00, 0x03, 0x00, 0x00, 0x00, 0x01, 0x00, 0x00, 0x00,
    0x9c, 0x00, 0x00, 0x00, 0x03, 0x00, 0x00, 0x00, 0x2a, 0xf7, 0xff, 0xff,
    0x00, 0x00, 0x00, 0x01, 0x14, 0x00, 0x00, 0x00, 0xe8, 0x00, 0x00, 0x00,
    0x0f, 0x00, 0x00, 0x00, 0x00, 0x00, 0x00, 0x09, 0xf4, 0x00, 0x00, 0x00,
    0x14, 0xf7, 0xff, 0xff, 0x08, 0x00, 0x00, 0x00, 0x8c, 0x00, 0x00, 0x00,
    0x10, 0x00, 0x00, 0x00, 0x00, 0x00, 0x00, 0x00, 0x00, 0x00, 0x00, 0x00,
    0x00, 0x00, 0x00, 0x00, 0x00, 0x00, 0x00, 0x00, 0x00, 0x00, 0x00, 0x00,
    0x00, 0x00, 0x00, 0x00, 0x00, 0x00, 0x00, 0x00, 0x00, 0x00, 0x00, 0x00,
    0x00, 0x00, 0x00, 0x00, 0x00, 0x00, 0x00, 0x00, 0x00, 0x00, 0x00, 0x00,
    0x00, 0x00, 0x00, 0x00, 0x00, 0x00, 0x00, 0x00, 0x00, 0x00, 0x00, 0x00,
    0x00, 0x00, 0x00, 0x00, 0x00, 0x00, 0x00, 0x00, 0x00, 0x00, 0x00, 0x00,
    0x00, 0x00, 0x00, 0x00, 0x00, 0x00, 0x00, 0x00, 0x00, 0x00, 0x00, 0x00,
    0x00, 0x00, 0x00, 0x00, 0x00, 0x00, 0x00, 0x00, 0x00, 0x00, 0x00, 0x00,
    0x00, 0x00, 0x00, 0x00, 0x00, 0x00, 0x00, 0x00, 0x00, 0x00, 0x00, 0x00,
    0x00, 0x00, 0x00, 0x00, 0x00, 0x00, 0x00, 0x00, 0x00, 0x00, 0x00, 0x00,
    0x00, 0x00, 0x00, 0x00, 0x00, 0x00, 0x00, 0x00, 0x00, 0x00, 0x00, 0x00,
    0x00, 0x00, 0x00, 0x00, 0x10, 0x00, 0x00, 0x00, 0xdc, 0x81, 0x3c, 0x3b,
    0xb0, 0x84, 0x4d, 0x3b, 0xc2, 0x58, 0x78, 0x3b, 0x5f, 0x51, 0x6f, 0x3b,
    0x90, 0x49, 0x60, 0x3b, 0x27, 0x4d, 0xc5, 0x3b, 0xe4, 0x59, 0xba, 0x3b,
    0x9d, 0x1f, 0x05, 0x3c, 0xf2, 0xa5, 0x42, 0x3b, 0x82, 0xd5, 0x20, 0x3b,
    0x42, 0xbb, 0x01, 0x3b, 0x1a, 0x5e, 0x57, 0x3b, 0x03, 0x76, 0xf5, 0x3a,
    0x85, 0xf0, 0x12, 0x3b, 0xe6, 0xfc, 0xa4, 0x3b, 0x2b, 0x81, 0x76, 0x3b,
    0x12, 0x00, 0x00, 0x00, 0x74, 0x66, 0x6c, 0x2e, 0x70, 0x73, 0x65, 0x75,
    0x64, 0x6f, 0x5f, 0x71, 0x63, 0x6f, 0x6e, 0x73, 0x74, 0x37, 0x00, 0x00,
    0x04, 0x00, 0x00, 0x00, 0x10, 0x00, 0x00, 0x00, 0x01, 0x00, 0x00, 0x00,
    0x07, 0x00, 0x00, 0x00, 0x03, 0x00, 0x00, 0x00, 0x4a, 0xf8, 0xff, 0xff,
    0x00, 0x00, 0x00, 0x01, 0x14, 0x00, 0x00, 0x00, 0xe4, 0x00, 0x00, 0x00,
    0x0e, 0x00, 0x00, 0x00, 0x00, 0x00, 0x00, 0x02, 0xf0, 0x00, 0x00, 0x00,
    0x34, 0xf8, 0xff, 0xff, 0x08, 0x00, 0x00, 0x00, 0x88, 0x00, 0x00, 0x00,
    0x10, 0x00, 0x00, 0x00, 0x00, 0x00, 0x00, 0x00, 0x00, 0x00, 0x00, 0x00,
    0x00, 0x00, 0x00, 0x00, 0x00, 0x00, 0x00, 0x00, 0x00, 0x00, 0x00, 0x00,
    0x00, 0x00, 0x00, 0x00, 0x00, 0x00, 0x00, 0x00, 0x00, 0x00, 0x00, 0x00,
    0x00, 0x00, 0x00, 0x00, 0x00, 0x00, 0x00, 0x00, 0x00, 0x00, 0x00, 0x00,
    0x00, 0x00, 0x00, 0x00, 0x00, 0x00, 0x00, 0x00, 0x00, 0x00, 0x00, 0x00,
    0x00, 0x00, 0x00, 0x00, 0x00, 0x00, 0x00, 0x00, 0x00, 0x00, 0x00, 0x00,
    0x00, 0x00, 0x00, 0x00, 0x00, 0x00, 0x00, 0x00, 0x00, 0x00, 0x00, 0x00,
    0x00, 0x00, 0x00, 0x00, 0x00, 0x00, 0x00, 0x00, 0x00, 0x00, 0x00, 0x00,
    0x00, 0x00, 0x00, 0x00, 0x00, 0x00, 0x00, 0x00, 0x00, 0x00, 0x00, 0x00,
    0x00, 0x00, 0x00, 0x00, 0x00, 0x00, 0x00, 0x00, 0x00, 0x00, 0x00, 0x00,
    0x00, 0x00, 0x00, 0x00, 0x00, 0x00, 0x00, 0x00, 0x00, 0x00, 0x00, 0x00,
    0x10, 0x00, 0x00, 0x00, 0x3f, 0xa0, 0x7b, 0x39, 0x9c, 0x2a, 0x89, 0x39,
    0x38, 0xc0, 0xa5, 0x39, 0x8f, 0xb9, 0x9f, 0x39, 0x78, 0xb1, 0x95, 0x39,
    0xad, 0xae, 0x03, 0x3a, 0x76, 0xbf, 0xf8, 0x39, 0xa3, 0xb2, 0x31, 0x3a,
    0x5c, 0xe9, 0x81, 0x39, 0xd0, 0xaf, 0x56, 0x39, 0x87, 0x2b, 0x2d, 0x39,
    0x72, 0xbd, 0x8f, 0x39, 0x2b, 0xd3, 0x23, 0x39, 0xd2, 0x23, 0x44, 0x39,
    0x43, 0x3b, 0xdc, 0x39, 0x79, 0x85, 0xa4, 0x39, 0x12, 0x00, 0x00, 0x00,
    0x74, 0x66, 0x6c, 0x2e, 0x70, 0x73, 0x65, 0x75, 0x64, 0x6f, 0x5f, 0x71,
    0x63, 0x6f, 0x6e, 0x73, 0x74, 0x36, 0x00, 0x00, 0x01, 0x00, 0x00, 0x00,
    0x10, 0x00, 0x00, 0x00, 0x5a, 0xf9, 0xff, 0xff, 0x00, 0x00, 0x00, 0x01,
    0x14, 0x00, 0x00, 0x00, 0xa8, 0x01, 0x00, 0x00, 0x0d, 0x00, 0x00, 0x00,
    0x00, 0x00, 0x00, 0x09, 0xb4, 0x01, 0x00, 0x00, 0x44, 0xf9, 0xff, 0xff,
    0x08, 0x00, 0x00, 0x00, 0x0c, 0x01, 0x00, 0x00, 0x20, 0x00, 0x00, 0x00,
    0x00, 0x00, 0x00, 0x00, 0x00, 0x00, 0x00, 0x00, 0x00, 0x00, 0x00, 0x00,
    0x00, 0x00, 0x00, 0x00, 0x00, 0x00, 0x00, 0x00, 0x00, 0x00, 0x00, 0x00,
    0x00, 0x00, 0x00, 0x00, 0x00, 0x00, 0x00, 0x00, 0x00, 0x00, 0x00, 0x00,
    0x00, 0x00, 0x00, 0x00, 0x00, 0x00, 0x00, 0x00, 0x00, 0x00, 0x00, 0x00,
    0x00, 0x00, 0x00, 0x00, 0x00, 0x00, 0x00, 0x00, 0x00, 0x00, 0x00, 0x00,
    0x00, 0x00, 0x00, 0x00, 0x00, 0x00, 0x00, 0x00, 0x00, 0x00, 0x00, 0x00,
    0x00, 0x00, 0x00, 0x00, 0x00, 0x00, 0x00, 0x00, 0x00, 0x00, 0x00, 0x00,
    0x00, 0x00, 0x00, 0x00, 0x00, 0x00, 0x00, 0x00, 0x00, 0x00, 0x00, 0x00,
    0x00, 0x00, 0x00, 0x00, 0x00, 0x00, 0x00, 0x00, 0x00, 0x00, 0x00, 0x00,
    0x00, 0x00, 0x00, 0x00, 0x00, 0x00, 0x00, 0x00, 0x00, 0x00, 0x00, 0x00,
